#pragma once
const unsigned char Sound_model[] = {32,0,0,0,84,70,76,51,0,0,0,0,20,0,32,0,28,0,24,0,20,0,16,0,12,0,0,0,8,0,4,0,20,0,0,0,28,0,0,0,140,0,0,0,228,0,0,0,104,25,13,0,120,25,13,0,244,39,13,0,3,0,0,0,1,0,0,0,4,0,0,0,162,229,242,255,12,0,0,0,28,0,0,0,60,0,0,0,15,0,0,0,115,101,114,118,105,110,103,95,100,101,102,97,117,108,116,0,1,0,0,0,4,0,0,0,144,255,255,255,17,0,0,0,4,0,0,0,8,0,0,0,111,117,116,112,117,116,95,48,0,0,0,0,1,0,0,0,4,0,0,0,90,231,242,255,4,0,0,0,15,0,0,0,107,101,114,97,115,95,116,101,110,115,111,114,95,49,54,0,2,0,0,0,52,0,0,0,4,0,0,0,220,255,255,255,20,0,0,0,4,0,0,0,19,0,0,0,67,79,78,86,69,82,83,73,79,78,95,77,69,84,65,68,65,84,65,0,8,0,12,0,8,0,4,0,8,0,0,0,19,0,0,0,4,0,0,0,19,0,0,0,109,105,110,95,114,117,110,116,105,109,101,95,118,101,114,115,105,111,110,0,21,0,0,0,128,24,13,0,120,24,13,0,40,24,13,0,208,21,13,0,184,21,13,0,168,20,13,0,148,20,13,0,132,19,13,0,244,18,13,0,228,0,13,0,212,0,0,0,204,0,0,0,196,0,0,0,188,0,0,0,180,0,0,0,172,0,0,0,164,0,0,0,156,0,0,0,148,0,0,0,116,0,0,0,4,0,0,0,42,232,242,255,4,0,0,0,96,0,0,0,12,0,0,0,8,0,14,0,8,0,4,0,8,0,0,0,16,0,0,0,40,0,0,0,0,0,6,0,8,0,4,0,6,0,0,0,4,0,0,0,1,0,0,0,234,3,0,0,12,0,24,0,20,0,16,0,12,0,4,0,12,0,0,0,91,98,206,226,144,14,138,218,2,0,0,0,2,0,0,0,4,0,0,0,6,0,0,0,50,46,49,57,46,48,0,0,150,232,242,255,4,0,0,0,16,0,0,0,50,46,49,55,46,48,0,0,0,0,0,0,0,0,0,0,8,218,242,255,12,218,242,255,16,218,242,255,20,218,242,255,24,218,242,255,28,218,242,255,32,218,242,255,36,218,242,255,210,232,242,255,4,0,0,0,0,0,13,0,210,31,219,71,247,139,21,26,214,47,182,226,54,153,255,205,200,154,164,69,250,223,236,44,44,187,162,71,218,24,54,210,146,244,210,0,8,40,12,196,189,242,232,67,227,212,8,67,55,230,13,70,131,73,179,254,8,8,192,34,46,63,204,173,70,230,1,236,59,205,222,193,190,27,37,231,195,218,202,76,192,61,53,73,30,18,192,198,191,250,239,191,61,5,151,227,240,225,249,12,193,188,140,176,36,4,2,71,54,166,186,12,53,24,204,250,2,12,174,41,194,73,52,36,143,209,55,252,178,43,182,205,160,237,253,149,187,154,224,3,152,241,48,254,182,155,31,1,47,50,236,11,23,177,247,253,33,15,219,224,223,246,253,243,239,200,12,67,51,64,230,145,227,231,210,37,41,244,23,236,9,152,204,47,44,69,198,169,3,239,37,253,22,63,208,180,187,63,169,177,217,179,150,55,36,149,15,248,163,54,51,18,145,157,23,66,196,240,160,80,59,20,253,57,244,161,202,221,255,140,49,190,159,169,61,154,58,196,245,170,21,247,7,17,140,215,193,230,248,80,178,18,233,50,197,44,202,176,243,50,196,194,26,233,36,201,184,203,35,179,163,9,228,146,45,2,227,28,236,177,168,66,203,29,224,192,232,179,255,203,188,234,197,59,19,0,7,42,230,223,194,154,19,192,189,50,140,162,190,224,173,236,17,166,149,168,49,194,22,32,173,174,59,59,167,203,167,230,223,137,4,31,32,52,3,172,16,217,59,224,20,173,206,8,169,26,243,16,231,156,173,162,253,16,246,152,166,32,65,163,186,7,204,194,203,62,3,189,3,186,38,61,55,45,60,59,177,44,15,211,10,195,177,231,157,61,47,45,9,239,56,144,35,35,205,36,186,248,195,226,152,224,219,64,208,217,54,235,148,185,201,72,56,76,152,214,55,72,62,233,52,193,235,232,143,134,39,222,7,71,64,50,211,255,214,15,249,187,46,35,226,254,251,242,226,219,33,33,252,39,7,28,2,203,49,57,3,228,205,221,27,6,32,252,203,43,210,182,209,61,152,219,201,0,189,66,46,18,230,250,199,106,245,2,54,188,48,11,245,41,48,223,170,244,153,36,7,62,161,154,157,53,192,221,55,255,31,4,147,188,66,140,28,255,216,171,35,14,142,244,255,181,181,249,182,171,160,10,192,1,141,57,140,170,174,20,26,226,35,168,20,197,31,158,185,215,199,12,245,20,45,54,252,10,199,219,188,210,145,61,243,50,237,63,220,35,177,55,6,221,1,48,204,254,12,4,8,17,25,204,142,16,17,173,201,183,19,68,147,154,28,5,169,218,229,220,142,147,223,243,234,36,17,166,182,211,190,162,148,6,198,55,231,35,174,48,51,249,186,21,168,41,22,11,180,199,30,253,44,144,32,141,192,18,231,183,40,218,234,232,239,189,202,202,184,168,23,193,209,145,149,53,38,63,243,186,197,254,63,238,43,61,156,66,226,1,148,46,50,214,168,52,172,175,249,9,19,201,17,180,24,229,35,29,66,157,247,16,243,20,212,50,208,12,150,8,65,246,245,223,246,26,53,234,45,175,159,254,7,61,146,164,195,150,188,180,24,53,253,175,184,19,59,221,207,213,235,142,169,229,25,34,186,0,9,253,217,190,156,183,191,156,176,236,10,13,163,181,155,231,13,37,65,155,252,235,6,196,179,214,25,221,66,26,61,47,54,146,218,202,15,50,143,29,39,13,139,55,253,204,2,158,170,1,29,203,54,69,188,187,147,148,226,248,61,201,62,38,3,255,155,219,186,197,203,179,200,27,23,155,142,211,166,213,216,215,18,186,211,32,68,53,39,248,214,220,10,62,143,175,168,7,39,149,186,206,66,52,13,237,13,24,160,158,158,239,19,177,13,24,39,215,15,200,23,159,230,29,216,87,1,213,167,38,147,206,51,215,200,54,206,202,157,203,43,3,51,7,155,203,237,17,165,12,63,236,238,223,246,14,205,90,208,186,224,29,172,207,207,46,60,209,236,188,32,183,197,154,193,205,44,19,5,222,3,37,41,214,2,167,221,230,50,197,13,239,183,29,240,27,1,216,30,149,237,200,223,240,147,139,19,158,224,185,7,49,58,179,6,199,32,172,159,18,216,20,68,196,212,65,159,182,213,243,57,8,19,220,195,63,40,45,167,46,255,208,197,55,225,195,204,236,182,244,175,189,229,68,168,197,12,48,56,230,34,16,16,145,231,250,41,142,186,13,243,156,59,194,23,223,221,176,233,222,59,14,140,188,60,210,191,11,246,6,160,216,238,62,190,13,169,58,29,54,209,141,52,59,203,35,16,207,226,172,63,33,167,151,51,231,1,86,233,210,165,176,222,253,175,252,215,39,239,248,166,18,163,222,171,73,171,151,63,212,251,155,68,66,243,162,34,19,66,52,145,38,142,26,43,71,222,29,146,1,60,49,20,142,239,43,48,4,67,146,164,236,177,210,212,184,140,167,31,23,250,69,210,30,13,54,31,57,239,158,249,229,153,205,46,223,179,211,149,27,12,214,67,61,155,56,156,239,36,41,47,26,174,198,9,167,153,144,5,244,218,25,40,174,43,163,37,39,3,42,225,1,200,146,190,202,217,8,152,41,59,245,14,9,237,51,153,16,30,59,4,42,32,6,66,207,172,180,156,192,199,230,235,218,237,23,64,253,155,192,57,194,0,68,59,218,238,84,239,199,251,203,214,136,163,153,207,2,6,219,227,20,185,211,39,183,191,70,180,31,18,249,183,181,59,53,35,178,22,48,22,196,140,219,61,249,195,195,65,67,171,241,14,160,217,147,185,17,235,143,157,6,181,216,188,52,247,14,206,198,244,73,151,65,192,254,33,189,214,172,38,212,149,252,229,5,8,42,202,165,229,169,172,182,27,24,84,212,241,229,54,206,210,49,248,224,24,245,173,57,219,180,61,206,17,62,221,156,189,220,169,47,8,187,61,29,200,30,70,179,13,12,1,230,207,179,230,19,227,58,69,239,22,192,168,30,215,198,60,233,17,39,198,26,50,170,249,26,143,217,190,161,185,165,86,251,39,91,226,150,44,153,168,200,64,13,1,209,9,14,196,10,237,177,154,211,61,175,56,0,221,146,226,186,174,193,231,42,213,44,155,10,225,144,173,51,221,208,63,158,160,184,215,187,202,227,18,10,47,155,155,90,62,36,5,215,229,44,194,55,250,4,154,183,91,235,229,21,103,18,150,188,157,188,70,15,86,156,166,2,217,64,223,44,167,37,194,239,19,210,217,198,154,21,225,238,249,18,233,70,238,52,220,12,14,55,166,233,190,25,201,41,243,150,35,57,52,211,180,233,54,202,193,35,180,176,17,189,29,166,199,252,25,217,192,38,0,15,225,7,6,159,65,52,184,10,161,11,58,157,66,172,49,182,196,53,180,194,217,33,87,220,30,150,66,247,63,149,238,205,27,195,55,150,211,233,2,250,248,235,54,44,84,230,55,248,215,34,248,229,223,13,197,149,43,151,86,153,28,169,193,181,8,49,12,182,171,52,213,26,22,195,0,70,235,214,29,35,38,70,177,77,173,197,170,220,14,203,189,156,248,2,253,37,209,225,255,180,166,167,151,12,185,34,145,162,80,210,176,226,86,185,69,76,145,237,84,25,223,193,38,35,199,199,228,252,82,51,85,230,55,189,183,24,144,31,41,205,71,226,190,179,218,210,10,18,211,9,72,45,154,141,64,6,7,55,192,212,148,164,187,200,55,235,151,217,233,150,13,79,166,155,38,242,145,242,69,72,41,168,146,198,21,217,229,213,10,208,197,156,30,197,58,6,34,39,64,194,20,158,253,81,15,64,45,11,171,12,175,188,180,254,183,43,204,252,66,182,161,149,64,248,250,37,173,146,56,0,56,35,64,187,173,14,22,237,248,162,229,58,5,55,177,13,207,204,234,35,213,66,218,45,231,175,48,206,33,26,51,252,157,252,219,226,144,195,59,38,36,235,164,187,151,212,254,250,237,31,61,19,29,58,234,186,149,164,252,214,183,166,29,200,145,166,146,4,207,76,63,32,179,215,30,190,164,15,65,10,225,182,36,217,24,38,29,16,149,186,11,246,229,25,191,250,174,221,134,154,17,227,255,160,186,212,57,52,229,181,238,35,195,173,152,218,66,72,196,225,57,75,188,211,31,35,227,239,222,214,149,31,228,231,249,239,11,233,30,243,161,81,248,202,206,200,160,244,208,38,225,22,201,75,224,21,210,40,88,9,152,76,144,64,55,187,149,56,152,237,41,179,3,33,2,250,42,224,194,194,13,243,18,54,38,240,240,18,11,169,85,213,238,241,8,152,152,158,183,0,35,223,184,36,153,0,24,204,140,207,158,8,223,24,61,7,198,187,33,68,179,63,236,13,191,193,183,172,156,79,240,22,209,212,19,225,49,207,222,48,147,149,65,192,155,251,66,173,39,175,191,11,46,5,197,244,135,179,193,205,54,170,24,227,21,61,162,39,15,44,10,191,45,192,202,16,144,71,161,143,189,57,43,184,23,196,245,159,202,12,200,30,160,35,205,194,230,22,22,178,245,53,227,40,148,168,19,219,249,152,194,23,250,195,42,209,252,11,96,235,187,37,14,159,66,226,145,248,70,230,166,22,11,167,189,28,184,64,23,153,156,137,151,10,10,223,20,245,203,236,204,146,216,251,8,47,177,191,217,142,254,52,149,67,166,227,64,223,54,207,31,26,60,64,11,242,235,233,17,151,186,21,42,236,249,255,35,228,253,147,183,162,156,81,227,240,249,26,248,42,205,246,210,144,214,14,183,0,219,226,135,37,59,186,64,184,169,183,214,216,25,52,205,37,46,153,66,235,55,66,179,7,76,12,196,178,52,255,65,57,180,5,160,249,167,174,69,48,3,179,6,191,70,34,134,178,212,254,9,20,47,214,57,176,48,223,50,43,234,142,161,7,50,180,178,157,173,226,220,13,167,33,178,210,34,8,192,237,232,66,58,32,4,42,189,30,211,36,44,184,182,27,61,185,8,66,248,224,233,56,153,15,213,201,241,11,142,245,248,138,182,143,245,143,174,229,250,249,53,199,191,64,17,40,2,46,148,203,247,46,8,226,9,7,170,39,253,141,47,182,51,222,27,55,17,243,31,166,216,20,239,223,189,210,201,157,176,221,199,163,134,204,167,199,182,247,143,26,243,154,196,52,0,25,163,4,191,210,28,177,178,52,210,14,5,211,168,189,140,139,227,226,206,238,8,3,142,142,238,245,181,13,25,15,150,138,194,200,18,14,229,41,242,40,67,231,197,194,254,26,16,46,223,144,247,218,255,8,30,34,238,7,7,213,37,203,54,217,39,156,16,227,160,50,171,186,164,213,208,197,18,185,197,253,248,30,240,220,194,60,234,208,169,222,255,64,13,253,218,163,231,202,178,175,45,214,150,45,20,28,160,249,143,45,168,60,195,47,191,254,139,164,213,142,57,151,190,23,195,42,152,140,149,231,251,62,33,231,52,5,143,59,252,209,179,49,198,54,147,13,29,2,150,243,198,195,234,182,164,141,252,2,221,252,158,171,168,47,164,70,152,5,232,248,149,43,34,226,43,218,189,233,30,182,151,206,52,150,151,38,153,255,16,179,144,213,186,207,176,218,237,33,217,153,149,251,151,251,211,195,196,134,1,18,246,0,2,178,199,172,4,35,13,3,39,188,156,197,55,236,37,249,6,181,156,168,235,42,32,219,7,209,204,10,219,7,191,13,35,4,10,199,5,247,218,200,23,144,142,172,41,65,185,158,66,14,159,204,66,185,151,246,14,195,212,254,28,205,211,26,194,140,194,63,157,21,177,157,190,240,182,162,149,188,181,51,211,199,197,184,1,232,167,219,143,246,5,142,144,49,225,177,136,217,52,34,158,155,242,24,156,63,204,135,208,249,43,23,67,91,10,181,52,55,3,64,242,30,229,29,190,24,41,154,39,198,174,233,186,220,150,44,153,165,188,178,170,66,16,202,175,245,35,253,59,182,36,40,200,249,222,200,36,3,162,162,206,44,164,178,49,244,137,245,174,209,212,189,153,239,254,34,209,168,158,50,226,24,173,64,163,160,247,221,178,165,242,35,169,184,232,42,14,22,60,239,28,145,243,142,156,205,16,47,12,47,154,187,221,49,166,12,32,194,9,212,219,6,208,155,191,176,181,191,224,165,27,56,139,39,156,215,167,234,234,55,62,176,178,47,6,241,48,41,255,20,4,59,252,195,211,241,216,16,145,47,27,29,25,150,24,253,168,232,26,7,231,12,235,218,180,238,16,157,224,186,142,222,227,31,255,161,183,146,24,190,180,153,68,70,208,64,226,41,255,58,139,47,166,58,219,178,0,139,219,170,5,40,222,247,142,32,167,60,217,40,225,143,191,249,53,164,8,178,207,177,23,134,152,175,29,180,167,190,235,67,179,52,164,61,47,226,212,55,38,44,175,31,249,255,182,170,215,157,248,4,183,39,140,158,166,175,206,30,26,81,42,186,204,178,192,36,183,136,32,164,42,32,207,7,248,25,18,174,200,221,36,181,214,178,155,185,144,30,177,142,26,201,29,245,156,182,63,192,213,63,56,24,57,178,209,235,187,18,176,168,7,26,147,247,171,161,14,75,25,243,237,180,168,17,255,217,228,222,19,168,102,254,247,199,3,250,223,178,59,48,196,69,228,13,14,194,180,64,82,31,52,2,222,60,248,229,158,216,219,164,61,1,199,41,17,194,177,218,244,154,172,236,185,72,141,197,28,164,146,214,183,200,245,185,32,41,49,64,212,63,37,198,244,195,36,49,196,224,19,11,73,160,22,49,220,175,48,156,244,2,198,190,187,199,10,9,200,191,246,172,254,15,30,20,171,155,1,52,58,62,28,154,249,9,8,4,247,250,221,7,55,194,49,213,255,232,61,147,204,79,47,48,212,161,73,147,80,240,197,213,177,65,169,240,68,214,40,43,174,214,210,13,9,226,203,163,81,232,162,59,69,233,211,197,152,29,210,52,208,64,5,183,180,32,244,207,7,5,228,208,67,169,25,175,30,247,182,53,14,255,49,159,192,50,180,235,18,57,29,224,54,44,190,17,52,14,48,170,236,213,253,30,38,201,35,168,203,6,63,202,13,56,7,42,220,19,17,63,56,54,178,189,210,221,73,219,150,204,11,235,66,13,183,234,67,4,152,176,204,189,225,188,208,0,196,168,204,250,10,207,9,192,40,198,51,35,83,253,11,145,182,23,246,233,15,150,235,27,38,199,18,52,177,234,41,157,7,7,26,231,33,195,191,211,244,3,27,47,60,151,241,158,184,38,76,164,76,65,32,254,254,69,47,78,46,165,84,211,206,156,41,173,160,171,194,51,190,150,81,242,234,26,253,13,224,185,25,178,239,230,145,189,195,196,15,238,24,245,205,190,202,48,250,11,224,187,216,35,55,69,210,81,253,170,165,36,147,143,37,148,167,39,244,173,158,214,12,49,224,52,37,53,33,20,247,168,249,205,185,230,28,194,242,246,215,219,32,19,254,215,40,24,41,51,57,236,145,64,35,233,8,15,35,243,236,49,47,52,50,253,183,146,69,198,240,215,17,43,46,43,44,55,215,187,151,173,59,18,242,67,226,62,205,217,174,46,189,53,210,252,61,228,189,31,77,23,32,61,159,140,252,201,172,224,180,52,148,186,209,153,0,150,144,37,221,47,248,6,248,188,248,249,217,158,241,136,241,191,42,33,32,43,45,222,17,45,206,186,252,28,33,157,10,58,174,217,185,172,228,38,39,35,218,250,227,17,76,24,11,204,5,253,35,23,187,40,155,20,229,149,6,3,147,199,225,246,64,201,238,66,164,160,156,186,34,247,142,227,13,246,69,237,209,179,203,251,46,207,191,253,203,255,35,33,64,51,48,255,244,42,225,183,33,129,170,40,150,146,155,206,224,136,20,233,197,60,43,191,136,214,15,50,161,20,219,59,191,181,227,47,55,182,164,238,160,146,59,189,48,66,58,225,23,167,195,159,50,216,198,193,207,156,50,173,3,143,7,3,232,231,190,207,9,231,148,50,57,18,36,198,254,191,147,209,43,153,229,180,49,50,162,230,216,164,242,43,58,20,144,224,248,228,212,76,235,144,36,152,58,225,191,54,187,227,11,19,243,199,57,214,140,39,23,246,178,209,208,185,71,182,229,13,232,44,14,222,251,33,56,203,57,156,36,32,48,36,250,12,1,179,46,215,177,8,171,201,65,214,69,175,82,171,190,49,205,193,228,59,246,171,189,195,180,141,71,8,227,251,225,217,59,163,37,204,242,160,230,189,216,152,163,36,153,62,30,253,227,158,22,200,169,201,220,34,73,24,183,8,67,184,148,42,203,177,167,56,238,16,225,196,177,25,166,175,10,57,72,5,148,192,143,185,46,0,168,94,202,224,17,2,210,254,11,177,177,146,192,156,205,88,142,50,215,255,1,174,230,44,42,226,239,223,162,162,205,217,148,20,163,5,15,251,200,217,1,240,59,164,169,161,17,69,247,190,235,1,204,235,227,31,201,2,22,20,197,151,201,213,13,37,36,2,171,152,49,242,70,5,19,58,179,175,241,211,28,208,250,140,158,14,203,35,181,68,42,232,67,182,187,3,29,69,170,247,62,169,29,159,15,158,241,65,4,250,155,25,152,200,42,45,191,58,193,58,214,35,212,199,211,7,199,245,232,59,180,3,239,62,40,208,138,231,154,137,68,64,226,206,152,224,62,34,161,165,224,196,61,63,47,46,159,180,151,153,141,218,175,191,6,147,140,38,167,172,174,195,242,244,242,75,219,173,54,242,12,17,62,46,56,10,142,30,59,149,23,243,55,17,6,191,195,18,39,255,28,67,168,8,22,201,38,159,151,223,178,152,16,12,16,234,5,201,191,173,44,48,179,51,157,184,203,166,64,8,41,201,184,66,34,225,64,35,28,17,236,5,172,252,193,21,135,4,244,155,244,56,19,211,197,69,195,148,185,167,26,26,254,223,158,29,173,38,193,246,19,39,226,10,32,214,52,189,185,244,226,61,21,215,60,196,43,154,46,201,227,11,32,11,183,23,7,208,12,195,252,64,25,27,145,37,140,152,213,43,3,28,150,249,149,254,219,235,10,46,194,16,6,136,25,241,33,166,216,236,163,33,51,46,64,55,150,191,38,189,190,45,172,234,45,228,253,210,152,66,14,245,56,27,232,231,210,25,205,171,59,242,170,36,17,17,219,235,248,227,15,156,159,204,209,59,8,212,183,65,233,212,213,28,61,61,225,11,162,166,61,226,58,173,229,38,162,224,174,189,225,21,57,48,208,179,6,255,234,197,200,219,245,153,0,53,28,246,30,222,199,27,251,57,66,50,225,144,26,236,192,38,141,41,26,253,19,226,177,253,185,193,52,210,238,185,36,205,230,226,214,211,13,245,182,211,22,1,251,201,203,234,152,161,31,210,6,13,162,171,191,3,44,214,149,0,255,154,207,190,184,186,193,229,49,244,9,65,196,215,221,200,73,200,173,60,34,11,241,198,255,175,197,3,145,166,25,222,242,155,251,214,183,233,30,234,193,161,141,208,169,208,6,187,91,195,182,50,212,176,61,147,137,27,27,14,217,147,248,208,192,67,208,251,56,15,139,24,46,210,53,27,200,52,30,250,237,219,199,224,148,11,226,63,238,166,156,3,171,41,149,145,5,52,176,235,135,216,222,144,173,182,60,236,196,200,178,15,254,135,33,10,58,241,206,193,63,168,152,61,254,153,202,213,240,152,186,17,185,231,195,248,213,68,206,248,39,206,194,65,67,49,182,65,247,245,201,148,55,43,245,27,220,175,208,11,143,163,210,141,215,42,45,11,189,65,62,19,63,242,12,251,39,214,63,234,150,237,183,177,186,185,22,30,27,227,57,24,46,69,232,161,176,202,212,169,58,227,32,168,44,25,187,17,158,227,210,195,10,159,138,245,2,42,38,57,164,238,28,46,147,203,25,197,152,38,10,4,55,142,252,162,9,220,191,253,253,23,142,165,245,242,31,192,166,28,41,49,150,142,225,135,249,166,6,27,161,8,219,252,147,5,166,137,236,8,53,157,5,48,191,57,235,59,215,29,6,164,237,177,246,239,58,160,41,200,166,54,218,224,143,216,39,250,58,159,212,250,15,185,185,247,237,152,188,67,24,233,175,255,187,163,193,57,51,13,64,191,197,240,184,165,227,240,238,14,216,197,4,14,231,238,232,227,173,45,139,18,23,43,136,241,24,138,213,193,183,191,217,68,176,215,213,62,13,58,54,154,239,141,191,238,186,12,231,5,10,146,88,203,244,8,164,177,242,239,10,1,57,35,201,179,21,13,236,59,70,28,232,174,246,220,170,48,10,50,254,20,178,153,71,54,175,17,14,60,250,42,168,246,255,253,183,254,184,189,152,43,183,70,221,176,45,254,207,72,5,173,232,204,25,16,84,46,232,144,165,12,69,34,68,46,31,18,169,180,8,184,147,210,220,171,147,7,50,81,166,192,143,36,63,143,208,252,65,234,14,34,46,170,2,207,68,47,12,51,252,55,249,19,2,159,37,180,6,174,30,64,195,229,239,223,1,40,194,181,97,234,159,212,17,250,179,225,227,63,244,44,175,42,173,181,202,35,25,9,177,253,204,89,161,53,184,167,45,170,209,13,187,185,215,23,219,156,217,171,220,24,239,59,142,20,185,245,197,233,202,48,45,249,28,185,60,17,7,196,228,175,254,248,89,197,190,44,176,11,178,208,52,244,175,45,48,58,167,197,250,0,13,216,36,21,53,52,28,186,235,250,212,63,188,33,74,19,205,154,54,30,80,214,28,187,161,48,147,36,27,235,159,20,222,215,9,40,177,26,169,1,178,173,44,38,11,150,197,207,41,43,22,4,84,195,221,45,61,37,144,251,42,31,253,191,84,157,6,57,185,86,25,199,176,40,182,254,199,229,41,46,247,226,181,16,83,179,37,61,185,68,232,244,184,15,21,190,29,218,146,220,71,47,217,71,9,39,33,17,223,182,30,1,199,189,146,247,165,142,22,140,143,230,205,250,165,52,176,50,254,42,224,35,43,17,57,31,187,15,8,141,251,50,205,218,23,157,218,49,36,17,165,10,22,58,186,252,29,27,46,210,6,38,26,234,71,179,59,7,244,183,225,161,169,210,138,173,17,55,213,65,55,4,223,242,60,30,199,53,231,61,248,12,151,245,157,24,250,185,247,102,2,44,177,167,183,190,17,12,149,20,215,142,64,205,145,142,185,239,179,252,169,249,237,41,246,16,160,16,7,35,159,224,31,173,61,145,61,33,143,147,54,165,4,243,33,165,186,252,181,25,175,79,176,0,186,37,35,197,24,170,255,38,211,139,41,3,3,159,47,183,198,242,228,52,163,134,203,187,191,163,181,184,240,14,173,201,185,39,44,42,65,152,29,165,250,156,173,149,12,43,50,113,53,212,232,241,217,158,208,195,19,239,200,2,139,50,29,56,154,162,77,218,32,235,6,68,221,179,220,38,2,63,229,198,163,45,42,191,227,140,244,240,61,158,23,219,35,23,14,22,5,26,46,241,193,4,32,30,237,111,23,146,21,36,28,187,169,167,190,55,8,171,33,161,61,172,169,150,252,180,42,225,254,206,169,181,242,27,55,238,197,223,228,148,105,246,178,250,234,58,27,195,169,67,204,189,10,152,241,223,70,187,246,156,24,15,146,8,215,27,243,72,15,249,221,136,145,169,161,220,155,36,2,149,57,215,26,195,4,149,29,4,245,248,169,58,165,210,214,50,217,146,236,202,250,227,46,252,222,180,56,66,30,199,51,235,203,17,30,218,236,247,84,59,236,73,191,194,222,237,41,246,201,246,217,211,204,223,199,26,215,63,176,88,43,150,160,51,199,7,64,10,223,187,205,194,19,208,185,169,157,63,173,181,22,37,47,167,214,77,70,143,173,37,141,3,186,139,66,14,187,167,59,146,57,151,36,236,238,216,22,6,213,252,2,56,39,39,156,64,148,228,26,155,68,43,168,238,232,238,223,204,189,184,242,51,198,174,212,227,49,24,247,165,247,170,8,96,69,166,159,12,171,199,157,209,151,9,25,245,251,176,152,23,247,225,15,161,195,233,146,203,147,87,153,39,171,183,28,48,233,6,197,58,197,30,199,34,212,218,146,56,235,147,6,202,189,167,230,148,63,29,184,18,180,191,245,56,21,62,42,0,215,208,233,53,4,97,17,206,105,155,42,22,171,159,225,236,229,165,194,252,30,159,8,20,61,109,247,73,221,10,164,253,161,82,227,158,194,230,250,208,33,9,253,239,59,84,225,158,185,240,144,180,217,149,38,45,53,73,23,4,249,248,255,200,217,66,212,230,253,147,60,228,248,236,66,206,20,177,239,4,24,146,167,223,219,208,46,154,164,30,153,21,182,236,182,54,6,194,205,213,40,216,212,14,242,163,243,195,253,63,57,139,233,153,42,29,240,234,216,33,64,43,246,13,142,24,205,145,139,195,176,6,66,146,158,147,54,58,255,46,230,140,194,30,144,244,59,58,180,217,206,57,193,17,161,0,7,40,160,245,155,65,28,14,221,165,233,252,140,225,52,162,30,31,9,18,200,47,159,39,192,173,26,192,226,144,194,17,234,12,11,231,244,180,141,149,19,20,25,148,171,210,15,190,231,244,25,15,16,249,134,24,156,7,7,247,200,230,142,249,14,41,10,23,234,168,181,196,56,170,239,62,217,175,65,175,243,237,147,62,139,165,152,175,198,159,161,19,168,159,4,177,152,171,206,38,160,206,60,198,144,199,178,51,224,52,152,209,157,191,232,13,140,249,9,213,203,230,4,141,233,24,185,223,242,177,179,6,179,43,209,140,181,27,136,189,47,51,211,162,194,63,151,154,182,188,5,25,227,164,195,244,187,145,2,238,249,214,165,226,45,158,189,163,160,156,181,241,3,144,139,208,198,148,230,192,206,209,148,170,54,214,8,230,236,49,192,72,136,47,206,216,157,33,184,41,214,250,52,9,158,22,170,10,236,1,59,204,57,57,147,24,136,39,175,168,156,186,15,187,234,240,155,179,142,158,192,136,6,245,9,152,234,173,35,211,11,176,49,177,18,151,13,181,3,12,180,141,23,217,219,1,167,198,215,166,198,242,149,235,186,241,176,64,44,61,216,228,201,27,25,171,216,186,178,170,172,169,24,234,147,28,33,185,188,162,57,204,38,195,200,191,33,167,29,150,219,49,222,36,41,153,17,228,148,12,40,182,18,55,31,43,199,210,57,148,163,230,242,52,143,247,58,171,177,251,198,23,166,205,44,72,251,35,211,202,228,12,156,150,218,236,161,180,249,142,223,37,164,197,213,195,146,229,172,172,189,6,40,29,5,21,249,60,2,179,169,14,230,63,15,225,2,148,219,147,252,180,209,77,215,44,164,160,181,23,172,51,182,28,33,66,190,34,66,206,31,204,150,135,1,26,184,163,42,175,143,202,58,243,202,4,178,159,23,35,11,19,22,193,187,58,35,142,218,21,220,242,177,170,226,250,178,229,14,2,58,44,0,59,5,142,232,64,5,222,217,134,195,55,184,197,196,170,233,171,21,172,202,236,43,253,11,154,57,200,56,221,246,222,197,195,160,180,48,1,240,193,184,11,186,52,61,204,150,197,225,199,63,17,201,10,3,24,205,143,204,141,206,38,190,210,207,19,37,65,14,35,54,6,180,215,162,171,3,140,202,222,15,143,42,140,177,187,250,214,50,142,230,223,199,156,161,243,203,192,19,205,5,208,248,155,19,200,140,190,225,137,39,206,199,54,236,253,48,74,25,17,202,189,222,141,131,153,51,157,211,229,236,30,31,42,178,38,9,176,188,228,154,198,8,37,54,191,180,151,217,10,31,45,19,52,255,14,138,136,21,199,244,27,212,36,176,180,245,16,12,42,1,175,229,52,221,248,180,35,177,167,243,59,25,238,182,237,14,136,230,139,16,237,206,14,228,197,160,16,58,154,248,159,190,1,10,213,161,242,200,228,3,139,79,33,237,63,152,53,51,144,83,186,251,254,215,20,195,57,200,35,242,213,217,160,15,197,44,57,53,169,148,172,35,155,34,28,23,45,155,21,183,51,212,25,216,41,151,1,205,208,231,226,57,30,242,63,59,43,36,15,218,171,52,162,234,244,59,48,203,173,253,28,255,44,25,233,39,180,172,215,245,178,187,57,16,240,216,37,222,199,241,253,163,219,15,225,26,244,224,225,188,201,9,252,139,195,15,247,228,162,248,210,247,180,18,49,194,184,24,80,235,220,208,214,144,34,180,23,189,202,247,242,45,209,190,174,139,6,208,169,44,2,195,65,160,245,254,226,214,216,52,175,162,50,74,87,164,13,163,40,219,196,191,11,230,141,246,6,242,220,44,55,240,156,192,13,200,198,17,231,29,57,92,10,4,201,34,190,243,207,146,255,210,198,193,10,221,230,152,155,234,212,36,40,0,59,148,196,67,56,251,191,167,185,186,11,158,164,73,31,226,164,5,2,247,10,255,166,91,245,10,26,41,137,81,187,19,195,22,236,159,149,207,204,161,163,197,199,177,202,15,92,141,66,138,152,12,220,80,34,40,230,143,46,253,230,91,165,247,36,173,233,43,63,175,85,143,65,85,188,213,146,210,215,36,24,182,157,82,69,69,250,206,248,245,14,31,249,61,38,43,138,253,70,216,174,61,238,148,5,60,6,234,192,199,84,52,238,9,3,69,29,83,223,57,3,22,173,235,208,228,152,211,249,61,188,3,233,226,250,247,201,5,212,138,14,207,174,10,59,187,44,89,11,191,237,0,198,46,203,200,210,80,144,85,213,57,230,220,17,233,182,235,195,226,60,145,169,44,236,46,6,193,54,36,141,205,210,199,161,205,200,229,165,244,206,233,188,203,219,32,204,5,17,182,189,3,249,4,39,189,70,40,56,205,203,236,184,171,28,43,18,35,197,149,172,50,244,153,17,150,11,57,19,144,44,56,104,51,252,176,218,205,16,3,198,171,209,228,30,10,2,189,44,237,36,27,43,60,233,44,171,73,205,181,69,1,152,144,33,209,22,65,31,198,17,191,6,146,60,201,20,186,49,16,173,229,244,238,18,20,192,57,229,29,191,44,66,25,8,24,74,24,239,14,11,138,23,5,235,201,244,15,212,34,154,192,60,249,25,20,12,240,73,27,62,7,37,206,178,20,27,6,80,227,179,22,3,167,19,32,67,187,239,242,192,161,45,40,242,252,255,66,183,253,185,250,55,28,186,34,33,7,235,169,76,148,38,210,183,27,36,210,251,227,23,21,185,178,189,238,144,203,29,27,199,211,244,12,230,234,1,171,46,5,150,246,192,43,15,198,194,239,16,177,244,184,179,203,219,219,19,144,133,194,60,219,22,68,175,237,57,204,183,192,160,51,34,25,47,193,182,10,30,14,49,22,160,221,15,170,200,33,26,230,172,188,65,28,178,158,60,183,188,141,144,137,11,14,229,226,242,1,49,47,224,177,173,231,58,0,37,167,208,171,161,226,192,184,57,243,203,161,208,142,29,2,149,19,201,215,163,146,64,64,188,12,207,211,203,171,254,39,68,60,221,150,54,200,185,158,216,225,169,157,231,233,248,41,205,17,224,176,13,13,181,220,233,242,171,58,243,0,24,236,80,143,141,49,166,160,31,4,25,151,217,238,214,69,174,2,174,31,41,43,56,18,43,61,37,24,200,52,65,184,1,217,169,215,230,67,63,163,207,44,237,66,144,69,58,11,177,194,58,186,8,155,58,48,20,7,222,153,43,136,226,143,165,73,25,1,214,2,19,63,3,240,173,185,222,53,22,44,0,5,187,194,222,47,10,252,15,56,52,40,31,51,18,5,206,45,22,183,186,173,204,9,14,143,47,228,185,193,251,156,60,137,51,212,201,220,208,189,57,68,7,215,53,5,220,233,142,152,179,226,178,63,63,158,64,243,58,233,62,179,174,180,238,47,70,255,31,244,231,43,166,53,240,200,231,12,36,60,6,248,218,48,220,230,224,34,233,207,222,213,66,187,61,35,23,223,10,219,199,45,198,251,48,181,161,233,46,166,136,154,239,184,191,154,247,170,192,59,166,51,38,8,153,201,217,54,199,224,219,184,56,163,66,150,151,18,182,200,63,211,149,168,51,62,170,192,221,59,202,247,30,215,57,232,58,243,13,52,164,18,59,205,57,43,64,154,145,251,10,228,63,242,39,201,56,227,177,143,166,22,246,41,139,139,147,253,180,222,50,137,42,224,135,52,216,216,27,38,17,41,179,191,177,162,180,40,18,43,0,181,226,164,20,19,167,17,4,213,237,46,154,233,30,53,50,169,162,52,232,27,230,31,150,235,47,145,209,146,33,231,150,243,16,221,21,176,46,255,48,56,8,54,17,252,152,195,231,23,41,25,4,150,38,153,7,58,28,55,52,15,64,60,216,15,158,244,26,200,234,35,234,167,25,153,176,174,48,34,163,174,22,222,78,187,245,25,150,32,153,156,56,145,233,52,207,210,199,31,177,63,12,226,37,217,229,251,41,58,150,22,156,164,33,156,173,52,217,26,155,243,165,196,202,8,47,186,194,227,245,188,8,175,207,241,2,21,152,228,150,236,5,163,143,7,21,223,58,245,37,235,0,43,192,10,169,57,144,5,41,243,11,244,203,5,45,14,189,216,153,11,192,247,62,217,50,38,235,165,92,13,11,151,185,251,229,166,204,180,41,43,142,7,231,220,220,176,12,199,189,229,203,251,175,190,151,241,62,211,39,62,246,26,21,34,42,187,236,201,195,245,238,26,165,39,153,206,212,219,2,35,243,194,234,27,184,224,184,216,161,185,18,59,160,11,163,144,9,40,181,12,35,59,34,236,64,48,203,145,24,147,214,233,12,145,48,49,137,30,15,159,184,222,188,175,201,135,65,22,42,36,159,209,57,224,62,166,53,218,193,61,56,136,238,181,25,247,151,220,200,49,209,207,136,34,17,218,64,237,203,12,249,210,244,206,37,138,45,225,154,174,15,62,168,220,160,44,10,18,3,5,177,138,245,238,140,159,159,204,33,34,160,181,177,142,236,216,29,30,27,185,232,58,57,180,166,29,220,150,7,185,195,231,178,1,212,246,253,208,236,244,163,201,24,205,221,224,189,186,26,194,145,210,182,90,149,141,240,177,255,40,67,137,178,44,141,245,160,250,217,147,145,173,175,49,167,175,250,153,159,254,213,2,42,31,61,41,218,0,26,176,48,148,160,245,62,174,204,39,212,252,157,226,146,2,43,13,45,140,198,148,234,163,30,173,2,191,171,237,17,208,178,12,64,189,251,208,231,219,160,212,142,14,183,21,53,169,220,32,229,148,147,202,47,174,218,35,34,206,142,191,7,249,160,143,161,59,238,219,242,221,212,202,30,176,225,56,154,253,40,214,59,32,26,14,226,204,200,194,189,201,12,148,27,168,22,175,209,55,171,249,10,227,226,220,50,184,196,187,46,221,206,52,51,6,165,215,214,244,206,163,249,170,4,230,192,49,183,160,238,159,243,192,157,32,3,255,61,209,142,4,221,12,253,60,205,252,57,2,146,27,213,6,239,146,255,60,50,65,172,211,211,28,235,146,157,251,181,218,141,38,159,251,232,18,250,185,49,138,22,54,2,223,232,9,58,183,160,139,38,42,235,174,38,226,49,251,224,224,15,210,198,218,145,245,158,209,239,5,147,225,133,223,54,168,175,228,24,166,3,178,237,2,168,212,51,212,25,236,155,226,143,65,223,200,199,156,41,64,167,42,180,43,167,239,11,30,233,190,88,155,186,22,0,193,38,200,232,33,249,214,155,174,6,45,26,20,53,54,15,164,172,60,69,244,234,58,208,32,187,3,245,217,224,221,57,216,203,76,199,252,38,207,26,90,222,66,159,231,85,177,252,210,35,50,46,6,188,177,160,89,44,185,44,185,50,73,56,236,177,181,231,220,235,155,237,65,4,196,220,42,202,242,67,218,58,157,237,78,16,170,249,251,206,209,59,0,160,208,226,212,235,100,59,159,46,22,39,20,178,17,187,44,28,187,211,174,213,247,235,43,198,202,42,239,199,195,217,183,196,28,240,25,191,210,230,27,162,213,194,60,178,65,0,249,203,144,248,172,243,52,246,183,13,185,243,39,67,161,17,176,25,63,253,237,199,249,222,170,207,21,215,2,175,25,48,234,254,183,186,175,73,219,46,28,61,38,206,212,197,65,193,140,208,59,32,239,235,74,23,230,177,38,210,65,253,236,188,18,216,217,150,180,180,11,230,253,63,210,219,253,170,160,212,56,64,251,251,73,255,65,224,145,149,225,169,9,22,62,41,45,218,32,176,239,24,216,189,174,165,155,227,243,81,144,238,149,139,52,156,176,252,240,19,186,249,152,170,214,227,230,140,176,217,11,231,151,76,243,51,3,23,4,22,255,252,239,222,158,210,35,63,26,169,37,159,242,170,250,151,202,218,183,145,215,219,7,4,33,62,12,6,228,24,159,198,56,240,240,72,6,48,201,144,190,207,18,58,204,175,215,189,22,15,61,255,41,240,196,65,150,203,141,34,13,15,50,232,86,24,46,80,152,201,231,56,32,47,10,3,73,174,26,29,168,31,47,65,174,246,44,208,169,254,35,43,37,197,67,34,185,12,32,158,68,239,114,18,211,51,251,221,42,69,199,32,252,208,245,17,25,195,160,218,46,251,189,56,18,222,233,201,246,176,62,214,142,61,145,2,20,193,158,163,244,64,38,11,185,10,47,232,81,189,207,189,37,53,234,207,64,35,153,231,162,23,0,245,217,255,209,199,20,250,190,44,248,223,182,45,2,207,43,53,166,217,215,66,234,200,70,60,219,173,0,241,236,226,179,157,175,156,213,144,6,221,29,38,239,19,227,165,29,184,227,8,241,65,245,211,72,10,163,21,166,60,215,233,253,214,235,48,218,205,19,209,200,41,176,64,24,12,185,7,57,216,24,0,29,4,28,219,180,37,194,170,229,183,11,160,48,179,35,150,147,212,55,170,14,141,173,140,187,216,197,16,216,52,244,32,222,69,248,218,55,209,25,187,0,215,38,213,43,7,48,233,188,39,189,151,184,92,0,205,222,184,229,195,220,0,35,144,8,254,186,55,226,229,45,173,55,22,175,157,230,254,196,2,24,2,218,41,29,107,181,215,52,28,246,155,191,213,58,3,237,154,5,159,247,225,7,214,253,193,153,17,64,63,153,167,178,63,241,207,18,8,55,224,55,193,60,214,7,21,224,56,173,209,2,177,201,195,32,0,191,75,203,197,224,183,194,141,208,44,31,200,239,245,140,206,57,38,150,235,74,242,192,64,205,47,221,238,227,77,12,70,168,170,58,198,185,199,48,150,170,203,199,145,230,53,46,148,67,4,212,21,191,34,195,188,212,35,242,39,73,56,70,204,219,203,191,185,136,174,182,14,244,213,198,32,155,187,170,75,170,249,190,225,2,210,162,206,61,38,49,253,35,230,34,3,225,77,195,183,1,180,151,16,246,215,7,54,10,78,31,45,231,18,211,227,251,209,200,171,249,43,172,171,49,3,69,200,56,233,51,199,202,170,3,84,1,46,193,231,6,234,241,6,66,244,29,32,40,224,10,70,238,39,55,62,147,225,195,45,194,197,46,149,3,43,185,43,156,54,254,195,145,223,26,28,163,190,187,219,159,224,0,175,47,152,149,21,70,197,216,0,191,195,68,33,26,9,204,155,1,241,51,16,231,194,148,214,48,39,240,51,187,29,162,190,235,150,14,218,22,158,249,170,19,22,12,244,157,5,240,253,230,239,18,16,254,53,163,238,217,232,197,152,244,244,207,192,223,40,211,216,14,234,218,21,229,175,141,3,144,167,171,240,227,226,84,62,168,46,3,136,232,160,149,162,57,165,135,179,215,57,8,192,12,237,211,202,213,202,226,5,177,142,51,84,165,173,198,199,237,249,234,36,147,168,226,232,197,165,233,8,212,46,180,0,57,141,44,147,230,48,199,217,157,141,54,174,62,199,92,170,6,199,18,248,60,201,196,25,214,169,174,224,216,136,148,64,215,58,29,197,230,161,159,58,62,39,177,45,5,185,171,238,218,19,227,25,31,188,20,187,203,151,61,147,140,251,233,247,28,78,43,44,40,224,51,173,211,242,222,59,37,39,56,148,164,21,165,234,31,183,144,201,183,205,235,156,204,151,248,69,243,62,0,6,207,169,185,212,242,198,195,162,203,48,22,180,221,176,205,186,44,21,227,161,248,21,246,145,226,166,166,154,215,13,173,231,171,213,174,65,46,164,223,237,186,184,55,37,144,179,13,10,214,203,59,224,162,233,33,172,196,134,163,167,9,38,24,234,181,200,31,168,233,236,40,203,176,253,4,189,181,243,44,18,246,139,191,231,207,223,29,255,140,249,242,221,171,140,38,249,235,208,143,9,147,190,229,175,61,156,92,226,36,170,235,153,164,19,44,46,211,199,41,238,48,16,196,146,192,18,245,230,33,184,145,246,158,213,150,45,152,156,188,146,200,254,58,11,225,176,27,42,167,242,149,54,216,201,231,208,183,38,249,253,1,207,218,195,163,18,5,46,187,30,48,43,168,29,19,166,222,198,56,247,201,214,31,21,243,142,199,185,225,231,238,152,190,216,29,29,22,40,25,70,12,146,205,5,248,237,152,236,153,165,216,182,167,19,156,197,189,154,208,247,51,143,44,228,44,231,228,59,238,212,239,181,4,176,89,193,2,70,40,150,207,206,47,43,201,189,146,137,41,1,207,217,0,205,168,163,249,151,25,250,185,175,193,25,133,166,211,29,137,213,42,21,62,46,208,44,179,4,246,56,41,210,143,200,4,187,203,1,35,33,6,236,41,199,19,29,7,53,23,12,220,205,188,229,134,39,161,153,136,143,19,197,49,172,231,3,164,19,45,63,239,1,211,1,192,198,21,253,195,188,192,4,141,26,23,161,227,23,192,25,238,213,33,53,209,177,66,238,203,210,149,45,167,37,162,176,140,208,54,237,135,181,35,49,158,224,170,198,245,175,36,51,32,58,135,195,53,199,63,170,3,248,167,248,42,138,42,241,37,173,185,178,169,231,192,160,55,6,158,152,132,219,160,187,175,217,42,232,185,173,2,225,158,41,161,236,3,207,174,1,14,41,152,40,55,224,229,39,6,193,223,41,26,241,184,18,250,238,160,239,229,173,46,16,33,189,163,180,207,30,39,62,239,149,17,69,153,250,52,21,214,197,42,199,224,7,0,139,24,210,152,247,169,236,61,154,134,181,18,60,166,44,61,158,40,159,239,2,210,17,245,211,186,67,209,168,192,137,227,153,229,161,143,253,176,212,14,23,185,43,63,216,15,247,10,51,240,209,177,183,50,212,70,65,159,10,11,0,160,14,162,48,233,252,158,52,158,204,7,36,192,39,191,203,230,135,184,150,166,208,161,210,46,189,247,13,195,154,207,55,249,64,8,154,177,44,191,51,2,83,159,243,175,197,48,207,25,254,239,195,201,47,253,47,203,36,18,14,165,35,56,5,235,139,155,204,169,224,68,19,50,41,236,58,151,14,146,2,205,17,235,250,231,171,35,223,169,13,231,194,240,192,189,165,52,43,181,230,252,222,181,184,171,67,243,56,189,182,41,10,214,235,247,231,177,52,144,34,148,244,192,185,46,23,198,29,28,64,35,30,47,245,28,199,175,29,167,231,232,73,200,165,203,226,137,205,77,240,3,84,197,12,92,11,51,178,42,65,153,63,164,255,228,3,88,174,165,200,23,26,16,199,226,47,238,171,194,209,202,189,251,20,2,51,55,142,35,193,63,184,9,180,65,191,164,238,198,161,14,42,55,29,207,200,251,28,62,252,3,19,34,186,209,245,140,150,230,186,232,57,199,163,27,190,163,196,47,176,172,43,47,19,206,215,217,195,162,215,231,26,222,4,14,219,194,54,236,20,72,231,206,4,10,58,21,164,191,189,180,5,67,223,15,41,185,242,187,226,53,59,3,166,171,217,244,219,11,3,58,63,204,197,84,31,57,210,27,179,26,232,39,65,16,142,68,51,204,190,0,254,220,163,199,174,193,224,53,188,217,173,174,195,227,143,29,246,107,31,35,228,32,252,242,157,35,21,155,254,189,45,165,15,243,41,253,32,41,65,244,77,151,219,189,36,255,170,184,198,106,215,237,180,23,11,51,38,1,21,28,216,158,172,188,18,177,243,174,10,63,65,40,12,39,224,233,166,42,141,9,58,180,156,199,188,233,182,28,45,241,5,174,60,168,178,64,66,174,19,54,238,244,157,92,89,144,89,251,18,242,14,171,183,186,235,215,69,244,235,170,235,170,187,219,203,148,45,8,61,239,73,149,25,65,174,194,255,141,236,208,51,177,189,184,69,149,151,6,52,196,16,13,69,244,226,161,253,221,222,172,155,65,210,175,250,188,209,27,177,211,189,161,66,180,147,30,56,158,234,236,186,207,214,233,223,60,218,13,42,62,72,141,12,237,205,246,248,145,68,139,232,193,6,201,181,197,174,36,61,246,184,9,220,64,247,211,150,3,6,15,249,166,184,38,197,240,47,154,252,25,60,232,19,166,61,237,37,200,32,28,225,160,180,194,53,164,60,250,4,18,241,234,234,71,57,150,248,0,224,250,31,224,252,146,5,24,15,241,251,255,11,63,253,245,249,149,28,146,225,206,173,36,201,192,242,32,30,242,165,55,194,201,200,229,133,6,19,174,187,29,187,250,141,249,91,75,43,23,184,25,8,65,181,196,31,61,170,36,36,70,191,196,255,212,227,1,232,14,199,165,189,5,170,240,140,201,43,173,232,252,46,3,229,211,159,194,37,216,255,180,45,50,62,192,60,49,200,166,229,199,63,222,250,141,192,253,236,172,199,141,151,175,26,172,55,214,166,157,50,246,15,161,16,4,241,21,160,58,28,30,172,224,219,36,247,197,27,190,203,211,140,223,148,236,47,241,186,72,157,23,63,144,214,168,253,6,151,204,248,178,56,228,46,159,228,59,223,251,32,48,205,209,6,161,170,45,252,162,165,212,33,34,11,245,157,15,164,15,145,213,213,39,24,182,230,247,234,189,190,18,189,49,35,185,60,1,7,192,224,218,28,7,194,195,206,64,247,173,12,251,44,58,78,247,160,152,46,158,160,201,207,215,179,232,153,45,15,224,7,74,153,196,196,225,218,210,28,3,197,25,187,25,247,22,185,214,85,17,163,2,20,7,2,200,27,179,51,155,226,213,214,61,48,196,208,37,220,182,232,142,163,6,244,177,56,228,201,61,211,6,6,44,3,59,49,170,163,189,173,25,66,30,2,244,36,229,251,69,4,225,55,235,223,245,204,34,29,63,181,9,196,247,162,253,159,187,212,227,33,229,19,233,238,231,30,52,237,183,46,21,8,154,68,6,64,169,247,154,77,175,212,209,222,221,229,2,161,44,235,58,0,3,231,19,232,151,33,191,58,179,147,250,240,251,168,213,231,143,13,232,169,219,80,237,238,203,163,224,41,244,194,217,189,203,234,17,9,206,250,198,24,13,248,0,32,148,197,191,190,26,159,168,31,135,221,32,232,244,41,225,187,144,143,176,141,59,27,195,74,217,32,196,199,201,168,50,15,142,40,42,225,195,50,142,207,203,36,145,212,200,180,191,58,40,240,11,33,157,202,25,235,166,244,178,32,232,221,203,18,41,251,32,234,177,174,166,1,190,38,232,55,156,17,22,167,9,203,176,215,39,150,46,41,159,186,186,53,185,221,153,20,168,166,176,184,233,204,189,163,215,193,220,148,62,3,237,35,51,65,214,33,37,216,25,236,207,197,172,222,232,57,214,165,147,30,195,35,213,220,225,42,8,178,220,220,143,164,139,187,5,81,204,183,6,189,148,66,242,213,32,189,156,232,40,11,169,219,220,199,177,152,61,46,192,56,28,244,16,7,164,197,54,142,223,182,178,232,218,22,35,250,222,231,0,170,1,186,60,186,146,50,167,247,178,63,248,162,59,53,142,148,39,179,207,225,228,33,196,232,247,176,140,215,50,255,134,155,244,238,170,221,145,244,1,232,205,231,236,240,58,211,11,229,28,204,223,210,31,57,46,175,61,255,54,27,11,197,0,144,186,155,32,183,182,254,175,54,51,82,6,1,232,182,150,242,45,184,238,249,56,52,180,155,32,251,224,58,4,26,28,6,143,172,141,146,150,191,153,161,198,48,244,197,232,52,6,140,196,61,223,12,143,42,173,59,63,169,11,222,232,30,166,222,170,62,228,224,38,36,61,205,220,24,221,142,254,239,172,189,49,162,213,220,17,67,42,188,146,231,148,209,156,40,251,5,28,252,147,26,49,9,187,37,170,175,231,251,60,15,23,219,253,194,221,192,9,17,192,249,237,30,222,191,239,145,217,224,198,195,11,179,65,194,209,14,219,186,223,58,133,212,208,242,45,38,245,51,39,157,69,58,146,40,237,150,255,168,61,179,147,36,46,246,179,220,193,11,228,149,211,234,38,47,230,235,65,11,40,51,61,11,203,22,39,193,147,158,13,184,194,25,158,182,213,62,253,184,157,239,52,61,225,198,186,157,176,166,200,168,23,235,226,22,242,6,27,167,203,50,241,172,236,37,155,39,11,148,13,168,36,49,31,220,48,34,167,141,146,25,187,248,232,36,234,213,253,38,179,70,245,198,150,170,182,223,206,188,171,160,198,176,251,228,213,255,54,61,155,190,25,183,60,149,235,212,151,187,184,155,213,162,190,31,251,9,224,60,215,169,207,225,231,186,6,231,21,208,200,216,176,49,174,5,207,163,18,153,61,245,180,228,140,208,34,66,12,61,151,154,170,24,217,241,157,152,3,232,187,41,221,175,24,232,164,183,11,44,198,54,247,187,3,208,156,161,236,222,8,237,183,26,160,183,161,228,56,167,198,237,168,183,7,24,236,192,207,55,248,139,43,171,176,68,175,65,54,9,34,236,178,144,227,178,28,224,155,23,54,169,65,217,134,170,238,248,46,243,31,218,144,251,166,55,171,157,224,21,41,226,7,190,243,228,22,175,239,206,29,10,172,200,247,53,137,155,148,10,136,175,189,45,227,200,30,38,233,151,26,19,246,147,154,232,52,148,48,201,158,28,143,41,196,142,7,189,183,206,233,235,40,143,181,244,39,252,10,62,165,188,9,246,32,29,71,17,218,156,234,196,75,205,16,159,151,16,146,161,31,43,231,147,55,189,199,157,247,184,171,19,35,9,211,160,2,64,218,230,36,238,12,213,13,146,27,67,14,202,203,62,54,191,239,212,12,167,35,58,190,193,17,44,44,14,221,228,182,226,0,50,146,216,235,44,212,212,253,58,197,6,252,203,14,210,222,202,29,203,164,218,210,205,68,10,171,14,168,26,11,194,57,12,140,174,185,160,235,244,191,230,30,58,170,56,140,223,141,163,26,157,242,15,9,12,253,230,164,45,212,203,15,161,194,201,147,55,185,216,197,63,178,48,20,0,154,145,190,27,239,203,238,1,32,191,242,26,11,16,143,17,227,225,72,37,231,224,49,253,216,22,253,193,190,255,7,76,209,64,52,207,165,154,201,49,147,19,59,169,166,66,174,238,36,189,207,19,49,194,191,177,21,226,176,238,19,6,182,39,62,17,2,250,236,59,220,58,179,151,203,48,220,172,186,199,176,20,173,239,64,143,13,178,253,203,2,189,32,31,150,210,244,27,9,72,187,222,228,201,38,26,205,220,239,174,29,10,20,58,178,11,247,207,160,152,175,236,71,3,63,64,164,164,3,19,184,24,50,222,13,158,171,38,92,50,163,188,140,231,196,181,212,71,33,41,253,21,137,198,60,168,9,57,247,219,251,239,191,201,9,37,211,34,44,156,57,202,65,31,199,15,84,205,239,237,200,221,17,231,246,147,66,154,55,47,167,235,255,152,37,35,245,64,173,32,205,12,38,186,145,230,155,142,76,61,194,239,198,13,41,45,235,145,76,56,249,18,222,31,240,246,28,180,19,2,32,161,57,209,56,202,170,35,223,0,212,162,195,155,44,54,44,242,170,40,180,156,47,18,219,240,18,184,37,62,212,167,14,63,200,172,52,3,184,29,207,184,180,143,144,30,175,68,218,2,152,33,163,195,58,14,41,57,54,198,207,167,208,202,179,208,23,173,208,67,7,223,16,221,243,150,171,77,138,165,25,228,166,34,206,23,247,177,42,238,247,253,0,10,198,89,69,13,2,142,45,31,3,50,201,171,212,248,220,245,56,245,163,39,10,53,196,184,19,198,244,65,31,86,1,46,166,9,166,244,45,140,57,193,153,27,11,195,2,28,229,50,169,147,64,39,33,14,198,42,228,255,245,60,152,159,227,10,31,242,242,245,37,46,156,64,214,227,24,179,38,143,57,41,147,231,5,64,55,175,13,155,55,251,46,219,65,46,171,9,241,187,187,10,188,181,179,192,183,145,150,6,93,32,197,221,203,239,18,195,66,143,227,19,37,245,224,219,214,227,202,164,151,33,159,155,45,242,217,181,196,20,194,50,169,238,162,110,207,65,33,182,210,240,224,45,185,156,27,7,214,19,250,18,62,199,229,191,48,17,68,193,42,3,52,27,1,234,171,194,186,241,244,188,243,188,239,54,217,235,255,207,0,62,228,10,186,34,181,226,208,140,167,203,12,19,36,28,29,35,142,22,7,54,184,20,195,3,7,221,44,221,251,27,57,176,21,18,179,37,189,72,171,228,51,216,174,20,150,32,6,29,236,79,164,207,45,238,247,217,219,162,69,40,179,37,51,46,239,39,152,202,65,204,252,161,5,240,165,11,228,59,157,237,30,43,42,253,43,10,68,229,45,75,149,143,187,174,32,23,73,219,229,198,161,180,208,188,181,206,244,44,29,151,163,184,222,0,172,167,14,22,42,37,21,255,245,193,61,181,242,182,246,168,30,189,151,181,225,195,7,189,152,59,70,236,64,217,21,188,37,170,203,67,144,169,48,213,1,46,14,170,180,64,38,186,140,63,251,64,39,1,253,3,248,231,204,158,13,228,178,5,6,249,18,5,70,240,215,229,52,144,191,26,182,28,238,234,203,13,5,183,225,50,158,33,36,8,70,210,192,150,41,93,153,212,237,7,62,200,235,7,184,54,155,213,203,239,209,206,246,155,245,197,230,22,157,250,165,239,22,0,3,254,181,183,70,43,15,193,21,53,39,144,158,241,160,8,44,42,212,65,233,166,243,33,11,58,211,165,32,43,39,162,93,250,31,44,251,170,179,55,13,172,32,55,34,159,29,20,57,38,35,34,203,215,201,180,33,234,198,177,30,227,25,216,87,162,43,209,22,162,197,154,50,171,9,236,238,178,67,139,193,226,169,250,37,184,216,232,161,244,206,169,60,149,189,217,161,144,218,12,51,59,149,244,224,238,207,7,168,30,214,9,34,179,195,65,156,40,198,39,253,221,202,216,11,227,183,246,234,52,241,204,194,212,15,56,167,58,11,43,12,194,7,16,23,68,32,234,246,44,53,199,45,24,233,163,185,0,185,28,57,54,173,30,16,45,29,185,197,164,169,6,171,23,189,139,175,23,211,200,157,190,36,163,149,174,27,158,56,55,45,243,87,155,222,230,7,7,242,247,165,38,21,237,189,158,253,26,143,18,195,64,250,12,16,177,192,212,225,212,54,79,215,254,229,215,171,216,161,53,34,193,250,200,159,228,17,169,173,37,7,187,5,167,163,159,241,167,222,184,238,50,223,83,30,141,160,160,41,164,143,49,193,32,135,148,159,251,226,35,12,180,10,24,156,81,161,26,163,27,61,188,46,180,63,168,36,21,204,181,190,153,138,159,183,172,185,200,217,246,166,30,180,223,162,24,199,43,216,30,188,9,33,236,252,156,255,9,8,227,29,154,193,241,63,194,135,12,220,28,148,156,241,41,193,38,229,10,37,4,254,149,242,212,183,193,208,229,63,253,192,238,172,253,36,171,240,185,209,165,218,178,38,237,163,149,228,216,66,177,16,31,192,190,160,157,211,216,13,39,185,23,217,11,88,234,25,32,148,218,183,214,242,215,241,218,6,137,0,11,182,16,254,56,198,169,197,248,140,161,186,165,197,161,159,20,166,196,16,20,214,228,173,185,221,161,12,14,49,7,55,231,147,250,224,253,162,247,192,25,147,14,9,139,14,232,55,222,162,23,12,56,7,61,175,249,142,179,40,206,253,53,236,194,216,229,15,31,247,202,151,45,37,30,7,210,182,232,9,243,26,208,201,251,157,216,135,155,237,36,199,195,191,42,3,179,155,156,157,167,138,41,229,237,202,238,235,11,145,74,249,146,216,183,27,66,60,243,211,14,8,54,23,0,253,190,42,162,8,223,198,16,175,44,176,248,0,3,13,139,155,188,153,183,82,213,190,187,52,151,208,33,60,255,193,236,37,167,212,228,19,238,4,64,218,217,177,170,57,35,177,138,181,13,44,157,35,229,151,42,166,165,56,229,174,4,238,56,226,247,32,165,175,185,181,185,253,21,47,141,231,163,182,51,63,6,189,67,139,163,222,192,157,146,207,8,216,41,152,203,176,207,28,24,222,174,164,177,172,42,17,143,170,29,27,143,46,54,250,157,12,166,13,57,39,192,253,235,190,24,147,57,160,178,244,28,251,195,52,55,42,246,176,220,10,58,27,225,208,201,49,215,37,7,245,217,29,249,176,169,196,173,144,60,17,142,200,201,200,159,242,21,42,190,16,190,183,217,36,134,213,88,151,161,54,146,148,248,16,154,24,244,27,247,158,48,32,55,209,135,9,58,42,255,180,217,198,204,182,42,2,55,5,247,146,19,169,254,12,206,22,188,221,244,180,59,44,251,19,195,248,251,206,178,44,140,211,244,198,194,25,220,235,59,204,41,149,21,56,171,198,59,235,186,223,209,24,53,91,202,168,154,52,163,216,158,164,183,211,218,205,71,62,195,7,25,187,74,143,205,199,32,192,243,212,20,194,147,201,248,253,197,170,215,227,34,239,48,31,41,218,246,195,1,177,54,10,53,29,184,4,32,48,52,36,160,38,5,36,8,247,168,210,144,223,246,175,45,217,163,193,63,195,190,247,239,10,167,35,241,145,212,202,174,54,65,254,53,13,63,255,234,54,213,72,33,174,196,145,243,32,25,58,45,160,40,242,245,227,142,170,205,36,7,189,190,221,153,254,254,227,34,59,18,155,1,231,7,91,254,46,15,210,3,210,54,151,20,63,37,14,59,75,15,69,208,54,148,78,224,245,246,199,55,209,46,139,144,57,212,199,14,240,79,255,219,40,93,33,142,87,218,13,48,166,173,30,216,222,223,244,210,185,143,74,214,189,22,33,160,238,14,52,59,43,56,6,49,160,210,143,190,76,227,151,171,12,183,249,231,49,24,166,233,179,215,204,2,188,2,195,158,227,159,8,253,214,16,179,144,56,187,34,16,247,73,34,231,12,182,200,233,42,212,25,245,18,175,51,195,54,15,255,226,204,234,25,163,250,26,151,24,15,221,10,248,2,252,154,218,46,47,41,32,164,223,23,65,254,233,228,193,232,23,49,34,203,186,225,21,8,22,55,195,178,251,177,150,172,250,180,217,198,241,237,227,49,196,54,41,179,47,181,50,194,225,58,216,231,175,55,28,144,246,225,215,23,230,217,201,185,14,47,241,86,43,55,200,36,62,172,230,241,216,193,214,161,158,59,43,213,176,38,241,225,61,247,222,223,190,168,198,18,26,21,200,15,217,190,23,1,31,38,244,9,198,185,57,22,174,48,240,42,187,165,44,208,216,207,209,166,46,252,59,242,28,53,39,142,6,184,171,250,7,220,165,181,200,190,227,16,5,143,228,176,8,152,63,47,59,167,84,30,12,252,224,225,235,155,193,177,14,220,67,235,250,144,161,14,157,174,236,37,230,214,59,157,51,36,57,194,38,40,208,178,177,194,56,162,201,250,251,231,222,33,66,206,157,5,190,61,85,195,199,225,7,166,219,50,8,254,192,51,166,188,240,12,10,201,6,154,193,198,11,236,23,27,176,201,11,209,252,214,32,25,254,200,46,6,212,159,153,154,11,194,230,193,178,2,26,254,255,1,8,201,189,59,49,50,9,52,52,231,218,224,191,144,81,236,46,197,254,220,59,198,250,38,176,142,247,185,14,218,216,144,172,209,170,189,183,229,68,226,152,195,143,201,192,202,54,207,3,189,206,246,235,160,5,7,221,167,199,181,35,191,43,206,233,208,193,2,227,148,216,40,205,8,12,17,25,31,70,229,205,63,243,233,12,215,224,182,65,252,159,12,198,17,40,22,213,171,36,198,178,172,255,150,240,31,156,170,225,10,224,17,144,236,31,152,151,30,226,207,209,20,249,35,239,229,218,39,192,35,230,163,54,24,203,28,143,39,205,2,13,235,224,224,228,164,234,58,152,53,4,215,182,175,159,170,159,38,27,210,193,251,1,145,13,63,18,196,28,27,164,21,210,56,4,36,195,37,24,229,11,2,154,214,45,17,230,224,7,142,14,43,206,12,13,220,213,45,217,250,244,194,1,245,208,54,173,202,165,249,191,35,192,177,211,146,157,41,185,189,49,51,76,40,1,22,156,189,255,10,199,251,96,14,209,62,106,216,48,153,249,209,237,4,26,213,192,31,28,58,246,50,59,213,198,186,165,240,56,195,2,202,48,192,254,176,30,193,204,43,247,223,50,181,203,154,186,12,36,50,11,197,219,157,216,35,156,173,201,30,1,19,54,42,46,195,8,194,185,202,24,5,32,147,208,174,210,30,50,206,5,0,181,4,57,234,241,58,165,231,251,181,198,57,54,254,255,23,239,59,7,198,63,179,204,186,144,162,209,160,38,192,177,161,52,201,35,220,188,167,206,198,4,66,176,38,35,162,2,216,234,23,204,58,34,5,203,238,39,204,193,52,166,8,162,203,211,9,183,243,35,161,1,0,224,187,51,200,249,179,202,204,166,163,19,56,49,242,159,19,195,200,52,149,173,53,225,234,170,185,189,244,249,51,2,165,36,26,14,24,247,16,13,47,163,171,56,168,217,223,137,211,1,143,21,166,193,58,14,187,214,187,17,53,225,41,254,147,59,224,212,255,179,178,202,184,213,26,163,23,62,3,201,5,145,206,7,62,195,210,230,252,30,17,188,62,16,41,191,8,192,5,141,199,223,248,26,30,246,239,201,56,195,162,2,214,232,18,196,191,251,177,0,249,246,246,59,57,15,252,215,145,165,20,154,154,227,172,58,12,165,47,215,40,16,230,233,17,210,251,60,34,239,35,41,43,238,223,32,60,238,16,213,165,226,59,159,50,3,231,182,161,33,206,30,229,194,207,181,24,253,178,227,174,216,187,236,191,223,57,179,252,205,192,171,22,153,29,177,217,18,254,249,36,218,212,194,49,14,162,12,63,242,219,8,233,149,11,158,56,63,18,178,171,243,157,17,52,33,161,164,144,16,146,216,60,53,35,22,161,34,10,186,149,38,190,172,196,53,32,188,163,248,185,3,236,38,170,217,44,148,63,240,36,193,47,6,216,225,51,7,188,35,162,197,235,197,29,8,174,226,199,11,181,241,40,233,168,205,23,55,17,0,246,36,243,247,247,64,164,203,185,200,255,17,234,55,168,251,22,151,45,224,54,49,50,244,225,43,235,173,218,33,53,23,8,12,240,222,17,67,243,57,1,1,48,178,22,16,223,165,193,212,165,47,151,191,12,223,58,237,170,172,170,65,30,222,219,253,248,249,149,254,33,44,245,246,230,208,30,231,254,3,236,213,54,235,17,61,18,16,201,163,174,163,160,173,208,45,63,169,232,50,6,241,34,244,190,254,32,233,149,230,167,154,2,152,241,211,234,218,151,205,229,25,57,229,206,45,24,38,215,223,37,34,15,70,1,192,23,22,1,155,183,166,26,47,218,181,16,21,217,12,46,157,191,248,200,2,182,149,58,251,236,61,194,23,181,16,199,38,233,185,9,31,151,9,159,143,23,159,210,29,31,151,42,184,187,164,159,249,15,53,52,149,6,146,2,249,148,59,0,64,190,42,169,15,164,33,200,223,1,176,20,188,16,26,177,201,217,188,61,50,197,235,53,4,233,217,23,184,159,80,167,199,247,250,153,33,36,149,222,28,154,233,60,56,164,230,185,70,56,162,154,0,242,159,212,36,247,251,158,52,195,24,5,225,208,158,154,146,10,233,207,170,26,203,25,15,10,172,176,49,64,35,182,150,179,25,8,61,8,208,145,22,3,82,27,228,186,61,207,46,177,225,26,161,202,189,58,8,238,183,30,252,20,8,253,198,227,162,205,9,167,15,59,24,218,218,206,12,144,220,64,161,20,150,13,145,28,210,11,152,163,176,230,232,191,174,147,195,202,34,227,219,174,16,211,179,35,235,182,39,229,204,209,211,226,26,198,61,30,8,181,197,15,53,233,255,234,154,9,193,153,57,248,170,191,227,18,138,249,246,186,159,206,243,210,246,217,187,215,235,58,169,23,59,207,2,5,193,241,58,179,154,153,53,142,62,15,237,184,230,166,191,43,43,174,56,41,219,245,42,32,23,14,172,161,223,252,195,23,23,231,201,7,171,181,14,152,157,196,44,34,217,11,78,181,1,240,240,51,198,37,5,52,205,244,40,56,248,85,231,242,74,227,39,141,250,141,178,48,160,49,28,33,214,181,23,35,5,236,59,198,51,57,180,225,144,25,147,171,209,6,189,16,234,223,174,191,34,140,32,199,216,142,176,204,214,45,215,224,248,237,33,73,45,254,161,178,237,178,138,56,15,252,41,148,85,147,202,253,254,234,244,81,5,158,8,41,41,172,29,180,138,204,145,9,21,173,212,49,236,13,255,4,25,50,0,35,220,66,48,204,47,215,215,6,187,244,175,203,3,182,242,43,177,187,28,54,221,72,5,201,147,44,140,24,0,173,205,28,254,207,37,214,223,44,212,208,150,145,254,209,209,221,21,174,144,71,147,230,5,71,174,5,241,225,216,210,170,51,225,17,234,243,227,47,1,54,195,70,255,151,148,254,2,8,255,225,212,233,211,37,143,194,45,236,175,186,160,239,202,79,245,28,251,197,14,146,171,182,182,71,158,224,25,220,196,57,246,188,203,244,0,51,247,243,208,198,212,191,9,217,212,216,14,155,246,181,196,241,64,38,21,14,3,246,29,42,188,146,15,39,172,192,210,228,4,166,22,55,174,45,238,87,148,170,232,4,177,66,5,42,197,26,35,1,11,158,47,242,251,148,227,13,15,206,152,239,224,214,21,153,197,32,239,31,16,193,21,45,205,166,168,207,242,26,19,210,148,170,153,204,210,239,70,11,187,252,6,9,53,67,250,182,252,168,209,172,167,16,161,31,172,27,31,45,59,211,254,33,161,254,205,175,249,46,41,55,30,81,178,7,4,9,143,160,53,236,248,29,43,251,228,175,85,8,178,251,220,33,184,192,157,152,169,225,66,181,205,31,1,184,32,223,54,46,188,188,168,54,21,7,50,6,43,21,170,201,249,157,246,13,87,151,28,192,83,217,214,198,250,247,28,244,239,252,21,147,196,230,207,150,49,4,28,52,226,57,234,151,234,194,202,233,72,213,2,16,45,178,220,149,46,246,205,1,168,24,251,187,186,251,11,239,229,253,16,2,194,249,245,37,182,189,37,196,252,241,247,243,215,39,173,66,58,242,212,21,18,151,52,227,16,246,181,60,195,154,210,166,165,40,224,174,223,54,195,143,44,181,159,168,196,235,200,242,222,222,32,177,234,215,179,153,233,206,189,214,176,48,13,40,250,249,255,213,39,48,36,14,88,54,199,46,241,195,44,196,153,156,235,219,200,192,211,44,28,171,200,222,214,45,240,17,52,39,62,186,215,137,41,39,213,53,197,179,219,185,164,23,66,229,57,35,182,179,204,195,35,224,193,205,4,251,37,188,17,232,168,184,234,208,233,184,8,251,228,253,248,6,62,187,180,7,197,188,11,226,222,16,226,168,41,10,9,139,250,183,219,42,153,206,209,15,252,221,177,253,26,248,191,189,59,235,88,183,34,5,249,240,192,47,235,194,58,162,171,12,3,29,244,160,238,15,32,213,62,150,47,238,162,155,17,245,141,62,231,21,209,60,193,7,62,32,42,164,8,158,201,250,171,152,13,232,246,242,174,171,203,251,205,199,197,59,202,163,195,209,57,5,175,203,174,36,223,34,239,4,248,58,245,219,178,153,33,221,247,140,49,218,249,145,0,35,232,168,195,162,247,177,241,30,240,21,170,208,180,153,201,215,42,166,203,162,233,166,162,47,25,29,61,152,150,144,229,13,220,45,252,222,47,229,73,179,248,150,185,22,219,26,174,244,191,35,166,242,243,246,255,23,60,54,200,249,30,178,14,196,248,189,36,200,249,247,226,244,166,2,234,18,203,208,173,48,244,59,1,219,252,172,239,188,41,201,225,145,197,29,162,208,243,189,214,6,64,236,1,160,254,75,37,252,203,185,198,246,229,22,224,21,191,203,37,34,186,21,212,52,28,62,51,235,236,237,240,228,41,53,75,231,147,34,169,162,238,14,206,40,201,54,66,187,41,228,146,170,0,177,235,232,153,171,184,223,48,36,150,201,197,197,32,232,25,63,180,3,186,158,18,177,182,37,236,0,233,7,177,175,252,47,38,196,175,0,204,249,145,237,25,190,48,152,145,16,229,199,162,193,163,185,65,214,13,29,154,171,223,36,8,147,49,220,165,28,155,208,183,242,26,16,8,251,154,156,15,149,146,179,49,44,6,207,40,202,213,190,230,252,246,8,207,180,167,48,13,12,177,30,18,50,214,204,194,240,251,150,69,157,148,146,58,181,229,236,230,230,150,202,188,229,237,150,161,34,200,163,195,172,215,11,38,7,215,5,168,11,31,157,7,49,185,25,241,231,42,254,156,12,3,144,247,237,191,193,27,214,54,207,186,219,27,20,213,140,47,250,150,227,209,39,22,47,244,156,247,218,141,11,246,11,4,167,181,208,43,14,60,255,7,229,42,190,250,35,231,233,193,197,208,12,149,43,75,142,9,47,151,239,204,188,25,11,33,243,207,223,174,59,60,225,168,21,166,6,150,222,253,31,137,232,178,253,195,247,9,175,37,28,157,205,243,194,224,47,186,38,197,251,202,141,146,8,169,3,51,16,227,26,245,181,246,236,158,203,1,58,189,227,213,181,169,214,201,52,13,2,187,23,215,161,36,54,142,42,0,223,167,2,198,180,23,27,217,188,145,27,244,5,22,248,36,173,173,165,39,58,192,160,175,150,205,204,251,198,155,230,223,155,29,171,175,23,48,35,153,193,64,202,172,9,177,195,219,16,37,56,170,32,167,44,250,145,163,25,37,182,151,170,5,24,22,144,182,60,160,139,33,8,221,219,19,250,176,26,54,181,225,163,34,7,230,180,38,47,183,164,4,191,215,251,198,253,11,180,178,35,242,172,183,181,149,223,184,52,41,232,194,60,178,221,165,51,53,182,157,219,9,184,245,247,34,211,216,167,243,173,190,183,217,203,233,148,241,168,13,2,76,150,23,214,213,65,13,250,254,232,186,194,14,236,209,220,177,143,143,57,178,10,186,36,168,252,233,24,252,21,179,150,199,235,255,12,151,17,244,177,47,254,142,20,154,154,154,19,49,242,220,145,180,162,228,219,174,161,210,52,23,252,13,184,24,31,48,179,204,241,231,27,35,241,159,227,32,203,38,153,14,44,213,214,2,201,31,220,155,208,235,192,3,177,142,11,36,237,24,35,202,146,21,155,44,170,200,44,207,171,48,220,229,30,198,185,64,249,20,144,202,202,229,253,153,193,237,193,86,27,29,14,62,242,225,255,163,179,207,234,245,16,230,223,180,158,204,217,32,238,10,157,242,230,172,236,17,191,11,183,196,253,18,25,217,180,163,251,177,9,209,154,244,159,179,45,190,52,216,21,235,213,187,170,13,10,208,16,215,6,219,182,30,142,164,211,0,157,254,167,195,194,216,29,150,7,8,36,62,198,142,34,187,196,155,162,156,57,51,206,26,186,243,248,241,2,250,222,192,226,30,198,181,252,1,49,44,198,232,156,248,213,255,232,16,197,252,51,167,218,222,186,54,14,19,47,231,55,213,54,221,48,239,221,52,48,230,250,181,140,252,238,58,176,54,211,156,46,171,52,201,45,164,142,8,199,150,14,206,139,63,253,2,196,241,212,204,189,19,24,26,38,49,158,210,233,184,243,149,45,219,39,173,175,162,235,238,188,255,216,61,43,148,216,145,247,14,171,193,156,35,165,38,33,237,208,55,159,150,39,168,246,32,156,233,209,208,170,217,210,146,158,82,152,183,222,38,208,199,45,0,35,252,27,42,182,218,84,252,210,52,38,215,17,4,192,185,33,158,216,217,247,172,31,183,42,250,77,57,0,215,74,251,225,55,52,210,60,242,4,7,164,223,230,65,146,31,5,176,203,62,195,211,30,40,179,6,179,142,22,253,183,173,211,208,28,170,30,214,38,188,40,49,41,54,211,183,169,230,215,184,216,201,8,223,177,185,253,207,15,238,63,204,254,153,170,230,135,161,174,163,209,233,77,219,187,179,250,169,46,175,2,3,191,195,39,193,28,52,38,72,158,26,61,15,61,157,73,55,138,223,180,11,237,12,71,5,60,65,184,64,174,85,247,54,191,249,8,180,233,174,148,21,205,252,168,238,204,148,212,55,233,220,250,197,35,162,247,177,19,13,155,66,216,57,157,173,241,41,29,165,215,207,164,86,236,205,245,49,234,39,243,158,1,169,55,206,248,15,80,14,160,239,246,0,23,184,144,6,61,148,245,40,14,237,37,211,171,253,40,38,181,17,228,213,32,248,245,22,168,18,253,218,180,15,183,218,185,45,163,30,180,179,219,147,7,173,239,48,53,21,33,224,196,197,204,6,232,18,155,244,196,6,232,176,241,49,11,245,199,21,174,243,246,188,228,155,72,62,61,44,197,25,9,254,77,174,200,30,160,246,172,42,85,150,18,231,224,61,219,214,13,77,218,62,208,9,23,19,31,213,60,193,197,145,68,253,247,241,230,247,9,42,15,39,243,236,191,19,38,186,40,18,208,53,12,213,199,156,236,0,69,221,237,216,147,146,62,229,225,205,242,51,177,169,193,152,231,222,25,211,204,7,15,55,17,13,230,51,3,163,11,35,175,242,227,22,240,250,237,57,3,234,11,146,191,219,174,22,173,143,244,151,40,156,205,46,141,3,249,168,159,50,47,222,219,181,229,87,187,201,217,175,186,43,204,7,216,55,186,235,248,147,59,152,181,196,10,51,27,168,206,1,236,151,37,45,17,23,239,214,174,210,76,214,198,243,160,197,249,147,222,205,150,12,202,40,202,218,255,86,185,18,146,189,15,49,43,158,148,183,148,240,197,16,63,165,166,2,192,170,238,190,152,161,162,193,181,51,163,239,233,151,213,197,32,197,33,142,254,251,15,248,22,53,153,32,233,50,144,188,209,40,192,188,193,192,169,60,159,232,210,177,25,191,234,17,40,184,251,142,0,243,181,62,200,190,168,16,59,12,226,232,1,238,242,251,3,43,8,215,43,14,231,45,149,71,163,156,239,159,34,234,57,19,181,238,172,48,169,3,181,225,188,225,239,39,230,218,187,159,53,142,198,36,48,61,37,213,183,41,36,8,241,180,12,12,66,173,245,68,226,1,61,42,147,194,9,179,190,191,31,181,177,243,236,30,1,16,6,185,1,42,37,251,41,190,246,158,254,24,57,27,226,48,78,226,169,47,232,161,10,241,247,18,36,201,37,222,43,35,40,44,196,55,219,159,209,211,5,224,155,46,225,158,189,15,45,184,1,172,34,156,47,167,209,172,35,154,153,7,155,176,210,43,30,194,9,180,243,166,211,18,243,219,174,4,246,158,193,179,145,4,5,167,224,159,161,6,36,54,212,220,11,146,207,32,8,226,159,12,254,248,224,193,193,217,253,160,156,217,35,205,6,36,191,5,244,249,23,6,204,62,25,171,247,252,192,194,148,57,164,167,62,192,36,203,205,208,28,5,25,199,249,187,59,161,166,32,158,4,34,49,29,237,20,155,62,50,201,22,24,140,12,60,209,46,45,230,49,160,152,153,162,180,183,47,188,21,248,223,41,169,250,145,161,65,189,174,202,144,0,244,10,52,173,112,184,142,39,220,158,32,157,33,184,16,201,30,199,82,233,157,180,253,251,57,180,47,218,145,201,229,150,63,184,34,192,50,12,4,34,238,12,52,189,178,248,236,62,158,231,223,19,21,182,174,0,212,182,26,142,198,200,31,179,39,162,147,223,73,156,161,185,1,32,41,18,193,152,234,161,40,15,146,222,27,220,206,220,59,13,175,22,189,62,178,252,207,24,182,239,30,40,168,59,237,2,52,191,65,145,221,177,64,241,18,2,218,255,4,255,247,192,179,6,56,212,33,199,63,158,196,1,52,230,235,27,168,171,172,207,72,192,157,187,226,241,21,4,46,182,225,246,155,195,240,204,145,14,1,185,201,222,36,207,254,36,229,150,204,29,26,249,9,20,0,172,198,28,4,61,204,48,20,150,172,151,238,185,158,212,1,53,251,207,199,247,48,198,29,156,189,154,46,247,172,196,194,195,1,9,218,238,148,166,12,46,208,219,251,206,229,46,172,190,167,147,155,142,166,59,248,44,35,156,31,57,38,9,34,44,183,49,170,145,141,6,248,16,224,157,148,169,32,176,241,222,249,39,188,233,35,190,55,39,223,32,232,1,237,15,40,249,163,193,35,193,23,239,178,12,205,32,54,151,216,222,18,15,56,245,7,153,18,254,224,42,51,153,150,189,50,191,227,15,237,210,212,249,52,227,20,155,187,155,156,233,227,202,50,10,163,173,251,8,169,24,57,251,26,54,24,142,211,147,200,213,220,174,219,165,151,186,192,218,61,221,151,232,207,8,165,2,157,210,49,12,12,15,38,234,170,203,14,217,247,174,40,146,245,15,8,176,52,254,176,198,58,169,235,233,240,154,10,11,156,160,243,58,178,192,226,169,162,239,160,56,20,211,159,200,43,158,149,205,233,151,34,15,8,50,5,170,148,182,254,178,48,54,184,195,21,185,139,200,171,185,57,28,246,39,235,255,43,37,142,44,29,24,233,243,184,143,18,165,45,223,167,212,37,196,49,42,4,9,160,187,224,203,220,160,207,196,173,48,209,166,249,43,224,153,204,45,145,159,232,3,150,208,22,167,219,178,162,182,228,171,208,151,216,249,209,24,200,30,11,168,160,253,236,160,227,181,16,201,54,31,196,20,50,19,224,188,33,143,53,51,48,30,251,242,211,32,152,59,223,2,238,224,146,180,254,146,193,217,240,177,243,208,48,255,163,28,153,38,226,225,236,51,5,220,154,180,241,165,205,45,23,176,191,40,179,226,245,60,185,227,36,31,213,193,254,213,183,25,173,49,228,230,157,188,29,220,218,171,242,208,14,230,249,181,240,216,165,43,10,219,245,32,231,255,214,0,52,222,44,5,247,180,209,27,64,60,181,230,239,223,22,10,154,160,57,217,155,22,247,231,43,210,6,169,222,59,235,236,232,11,36,249,250,5,38,59,152,253,10,12,146,250,9,239,154,225,5,142,150,71,189,42,207,225,29,151,158,219,39,153,181,241,252,220,199,169,64,167,183,41,195,236,43,35,13,164,27,197,192,191,5,208,187,4,202,35,57,47,20,1,1,223,3,4,188,56,210,205,155,233,4,147,196,164,22,227,45,233,33,50,181,250,221,176,232,44,55,49,203,161,193,200,166,144,57,13,18,207,48,210,197,225,42,195,198,190,205,30,48,228,42,169,54,176,206,204,203,188,239,15,153,214,19,201,247,181,184,207,169,162,170,28,250,10,187,224,41,144,25,147,32,3,222,215,185,37,158,27,196,235,42,1,179,7,22,14,169,238,45,193,216,42,198,198,52,166,254,194,189,214,32,217,40,247,228,154,202,153,186,219,1,211,7,146,149,27,52,38,174,38,244,237,10,26,47,16,250,36,47,38,62,178,37,149,199,196,211,159,239,1,35,253,5,203,141,36,252,176,53,15,243,58,184,63,228,59,78,188,23,200,34,202,254,171,150,9,230,171,255,161,251,33,1,2,224,195,57,79,219,151,167,237,147,37,152,72,182,47,52,36,169,184,18,162,225,228,32,188,203,190,10,154,77,226,200,252,218,63,241,67,11,163,139,245,178,53,176,0,176,213,31,203,165,220,230,19,58,44,215,188,193,34,9,32,18,37,206,175,59,190,180,195,228,33,13,141,29,82,220,17,44,63,14,174,230,214,63,172,176,197,174,190,228,85,228,154,67,227,246,246,26,221,20,13,184,26,25,232,178,200,222,242,251,211,45,9,249,238,85,28,228,184,37,170,225,194,245,47,2,197,185,15,177,17,230,25,177,226,55,28,178,219,215,13,171,16,79,174,213,29,31,156,37,182,188,170,3,61,218,177,244,27,26,39,26,180,38,200,244,19,148,7,0,174,48,72,35,19,184,3,212,177,21,12,234,168,157,141,180,189,41,218,208,137,46,186,179,224,2,22,54,201,39,250,140,47,39,23,172,206,216,186,49,6,176,19,165,250,55,0,33,225,170,142,238,48,3,65,172,85,233,218,249,10,243,142,243,42,145,82,19,47,223,10,22,200,192,17,58,171,230,147,58,198,233,44,75,164,165,253,10,37,165,19,17,47,220,167,220,57,189,253,153,221,29,172,238,10,61,244,149,193,252,216,248,55,8,16,211,136,28,209,54,212,222,3,224,4,153,50,160,223,20,186,238,11,183,176,27,160,63,186,157,219,153,164,248,226,84,10,187,142,150,8,54,177,34,15,40,196,33,15,234,75,59,74,15,186,230,166,163,189,53,147,41,210,13,152,230,242,199,198,39,166,23,217,238,21,10,184,218,182,57,8,172,243,38,201,147,19,23,243,147,248,188,7,45,152,129,169,241,27,206,160,66,48,209,240,15,221,214,145,10,212,234,164,226,183,238,170,203,228,161,55,245,181,172,160,180,188,170,151,24,34,169,46,220,158,6,254,240,213,43,38,202,39,196,253,142,216,248,34,166,9,240,58,9,170,173,64,17,243,168,190,149,163,42,212,212,43,239,12,65,241,74,14,153,154,243,234,193,254,215,204,233,20,230,176,189,171,56,0,49,250,160,254,245,28,44,45,23,174,186,203,148,44,97,222,20,151,56,6,153,30,206,180,146,247,150,153,42,189,182,236,212,55,208,235,12,224,179,23,210,225,236,4,249,53,229,52,159,162,155,12,16,60,23,205,174,34,219,196,185,234,15,30,144,55,212,171,61,159,23,50,106,225,175,24,28,25,76,50,156,39,231,64,161,7,42,32,155,183,162,185,62,172,166,197,50,4,206,248,156,152,38,33,74,35,50,244,58,172,242,29,36,219,174,52,194,49,199,209,7,208,227,168,175,49,13,159,194,215,8,203,251,217,244,240,63,58,151,185,179,47,230,146,65,148,236,193,8,6,232,181,255,252,211,171,221,230,34,8,37,5,33,65,38,58,12,41,51,147,231,39,148,214,103,177,61,170,164,181,224,240,184,57,240,9,183,186,224,165,138,8,39,50,149,6,221,236,211,41,173,221,220,8,54,235,103,245,213,60,28,37,5,18,232,253,240,12,216,226,186,172,45,189,36,19,27,0,27,247,45,214,88,7,251,233,14,217,150,173,243,252,195,10,1,186,221,45,237,212,155,195,211,144,235,202,186,0,62,177,5,155,155,219,155,49,20,49,205,252,210,233,6,57,201,252,207,8,207,204,170,145,165,253,218,219,21,7,207,156,150,205,232,174,7,176,162,40,201,153,181,2,28,155,213,170,195,3,48,159,196,174,43,37,224,43,215,196,39,59,255,154,178,154,235,240,183,137,220,242,34,245,33,154,155,195,249,48,2,17,215,28,205,53,150,211,2,156,63,154,145,16,158,199,249,164,217,169,4,224,94,40,13,226,246,195,232,151,51,219,215,4,153,230,185,203,221,52,249,150,199,160,30,206,165,236,212,168,210,215,155,48,65,227,248,209,177,193,41,22,30,29,35,59,240,200,252,176,162,225,181,0,47,4,58,62,198,224,180,237,71,236,246,185,23,192,203,8,31,17,234,205,38,160,237,149,212,28,230,190,5,50,220,156,51,220,49,161,172,144,36,37,167,46,6,209,5,156,63,229,4,187,150,252,18,12,222,39,249,197,214,186,54,169,24,38,212,242,168,164,38,156,13,188,171,149,188,38,33,26,192,217,59,39,251,251,228,34,153,196,220,179,169,219,223,163,15,34,153,203,173,51,6,37,224,243,250,180,192,0,198,158,243,175,17,34,10,44,58,187,179,57,196,5,243,3,42,196,207,14,224,205,55,193,157,146,37,29,45,250,5,169,14,255,25,83,10,176,39,144,236,33,155,41,252,149,59,48,42,195,214,228,15,186,254,244,27,30,19,224,246,224,175,224,232,33,230,11,27,32,145,57,2,227,203,152,168,170,203,0,223,174,33,152,2,6,36,15,1,28,210,191,4,153,240,24,235,187,166,58,5,25,188,181,211,166,196,28,211,138,42,224,217,210,8,6,165,150,252,184,162,240,144,186,240,208,12,144,38,225,157,234,38,10,192,253,58,217,239,27,52,37,251,208,43,175,200,248,251,184,40,14,27,162,170,51,227,40,220,183,38,224,232,145,36,11,148,241,194,139,50,57,223,45,18,30,149,1,253,180,151,9,193,163,44,237,145,37,208,210,41,10,220,27,236,48,153,55,223,36,52,203,232,0,170,9,152,39,153,35,14,53,255,217,253,222,172,23,242,207,185,190,153,229,242,8,146,20,195,225,9,184,209,217,208,237,197,188,15,13,58,148,240,240,50,166,29,29,238,154,169,157,200,9,141,27,235,166,188,22,152,42,197,162,159,53,1,230,16,173,1,155,146,13,168,236,228,143,246,234,11,250,143,189,209,234,170,158,243,245,188,85,2,199,170,23,243,175,33,242,17,181,177,45,10,148,157,206,157,153,234,224,177,142,141,234,62,162,250,188,171,30,48,195,165,34,250,48,161,170,198,173,235,249,144,159,254,155,40,239,163,222,196,56,171,15,229,230,235,226,17,212,227,243,53,232,161,164,140,0,42,55,180,225,25,25,26,0,210,150,32,209,227,169,83,227,166,215,225,52,247,191,30,159,204,0,161,40,225,183,227,166,212,14,180,204,201,30,220,248,180,46,179,153,200,232,211,26,182,45,252,170,44,41,206,188,207,161,54,172,174,245,49,159,44,182,0,25,164,226,22,233,152,162,157,219,215,204,168,222,167,241,252,170,186,187,219,3,27,213,226,226,21,243,44,16,62,214,10,40,208,155,26,202,157,227,35,185,32,31,246,35,185,201,231,160,159,11,222,9,25,47,36,238,22,185,236,160,44,171,172,140,34,18,178,55,57,227,1,19,199,179,199,216,216,172,174,53,30,178,211,184,156,207,57,228,41,173,179,60,148,177,6,55,173,206,26,222,146,30,221,44,13,30,203,227,207,25,20,152,12,184,169,210,217,145,234,228,55,174,224,177,203,166,244,186,174,203,187,246,242,200,37,196,254,255,179,44,42,245,200,6,62,213,217,230,199,247,180,181,233,8,242,18,44,201,247,202,221,10,180,255,195,37,246,185,244,143,184,11,159,7,195,236,214,225,162,148,231,35,41,0,9,187,215,189,149,168,25,188,214,169,186,50,47,169,30,166,160,145,230,32,201,166,49,45,153,174,151,13,215,33,209,13,235,223,4,214,150,137,230,45,233,17,244,85,155,217,222,34,38,7,15,51,218,72,31,9,202,64,182,215,251,200,197,86,170,26,164,222,17,22,192,144,201,202,145,54,196,203,88,54,227,235,1,38,65,59,2,166,196,26,25,150,55,239,159,234,154,214,162,55,192,55,170,226,187,23,203,241,10,10,202,21,13,171,69,34,55,231,27,31,38,3,74,179,241,183,215,176,236,217,9,192,164,181,195,247,159,66,62,63,36,8,188,212,217,155,239,179,231,39,64,42,21,15,54,187,38,186,249,214,14,231,222,53,149,200,185,185,172,50,167,251,202,175,195,22,211,220,203,152,215,58,171,160,163,65,23,216,224,180,236,249,3,12,46,65,179,154,53,165,220,60,193,207,146,159,11,176,29,194,1,143,227,42,203,54,181,76,180,55,202,13,156,45,248,180,198,48,8,173,243,199,149,237,20,56,205,196,42,195,12,162,83,233,249,236,237,25,212,218,193,30,214,142,241,44,187,218,57,175,150,33,230,14,201,22,195,36,189,249,53,48,255,236,204,20,62,9,252,231,196,179,86,209,215,192,190,35,215,66,177,2,0,54,25,250,143,215,13,176,217,195,228,193,55,223,28,15,177,49,205,155,186,214,239,31,233,176,21,204,242,7,157,191,205,4,17,201,217,179,13,14,159,233,25,165,7,10,52,167,154,61,149,15,59,185,199,50,253,213,1,86,238,8,21,34,48,191,149,22,18,195,210,44,201,237,0,11,1,254,32,48,44,88,197,162,142,238,207,27,231,199,139,247,169,219,225,219,47,1,48,143,163,66,203,14,16,203,69,54,9,198,180,11,205,25,23,204,28,33,5,194,254,207,220,37,252,48,82,187,57,163,181,33,226,45,186,156,57,205,168,51,171,40,146,4,156,169,177,252,160,65,21,244,68,191,154,248,169,4,190,26,187,171,162,177,200,25,31,40,207,20,200,188,196,151,184,66,23,216,7,2,15,154,33,237,146,201,50,3,60,167,41,209,172,155,222,173,164,223,202,233,14,12,39,241,170,40,187,161,221,170,230,159,156,191,217,185,19,50,201,196,235,154,22,25,192,246,8,29,237,227,229,186,215,213,202,254,179,251,12,27,234,65,49,13,27,55,251,179,172,6,219,206,6,249,28,17,176,14,29,53,23,197,18,57,46,251,56,185,176,59,33,42,87,235,49,59,163,248,54,5,59,30,51,169,223,172,212,159,179,28,190,176,189,163,184,162,255,175,195,186,172,50,203,188,3,242,194,162,18,20,149,157,60,146,240,22,2,246,45,146,232,154,4,43,181,243,187,10,205,242,193,12,6,169,19,179,172,30,142,43,206,46,239,56,195,245,47,231,228,244,179,58,215,200,171,190,34,189,204,8,41,159,174,52,164,56,240,49,199,37,13,201,66,215,35,139,171,18,252,63,213,179,201,43,167,213,3,49,241,50,62,198,192,242,147,230,33,176,26,169,31,185,168,244,139,73,246,21,48,198,28,12,38,212,200,220,236,196,51,5,1,238,236,23,219,211,62,188,154,44,221,158,249,6,224,4,185,19,25,145,239,202,152,240,25,233,157,215,172,20,0,214,250,0,234,210,191,200,11,22,28,239,190,216,0,149,60,197,235,152,16,46,188,232,185,243,37,225,217,216,0,195,224,247,150,150,49,245,231,62,183,20,143,64,213,224,228,151,27,6,242,208,26,45,43,170,195,197,170,56,161,6,12,175,185,180,4,73,66,154,58,13,232,21,245,250,49,12,220,174,155,42,8,7,189,180,248,60,41,240,253,23,211,29,235,23,193,52,14,194,51,156,160,43,189,17,193,162,145,206,194,175,220,30,15,40,242,170,16,236,194,221,52,248,148,241,38,218,145,41,2,184,3,152,190,205,159,223,251,249,157,164,48,36,158,170,161,254,237,171,1,148,52,70,215,4,11,55,22,33,65,214,33,143,243,201,154,43,185,179,36,243,29,178,25,21,3,200,23,241,204,24,184,186,19,69,42,191,188,52,149,215,223,164,230,17,43,186,8,21,28,226,251,24,194,239,36,35,60,22,237,61,0,53,16,222,234,202,250,175,49,20,215,139,57,199,60,179,242,250,186,235,242,19,49,15,182,181,6,251,241,214,27,43,199,164,168,184,35,50,181,43,249,200,201,249,0,210,155,206,45,34,200,215,30,172,148,54,59,52,154,1,219,145,166,58,149,240,192,41,167,58,155,245,60,47,12,57,167,215,163,150,58,36,148,196,187,18,208,31,55,221,56,52,198,183,151,239,177,147,7,253,217,56,39,50,189,241,152,150,204,30,196,221,40,31,215,15,24,225,206,21,22,38,65,55,22,46,14,20,167,169,82,26,248,253,150,50,164,249,31,3,151,152,149,45,20,146,26,64,172,61,46,43,27,9,51,53,206,151,217,192,7,163,85,142,24,61,202,217,54,164,197,6,177,181,58,57,253,239,172,31,24,220,51,45,209,218,199,241,47,218,7,19,11,161,252,140,44,254,57,198,49,221,50,148,194,25,158,162,14,216,59,19,222,165,33,43,180,17,202,209,229,215,43,191,240,225,239,173,155,86,21,18,203,194,54,16,240,226,194,35,52,180,201,36,46,6,51,216,221,250,51,175,32,1,43,160,198,16,237,141,5,210,185,209,3,203,213,185,42,56,3,23,26,222,199,175,35,165,37,210,169,61,168,202,6,230,178,227,177,17,218,212,51,3,151,202,200,163,187,231,143,243,237,147,151,0,187,145,229,182,55,51,215,180,10,234,14,219,224,40,222,5,48,213,34,181,205,240,56,157,192,215,7,156,17,16,52,2,145,177,37,19,149,218,250,211,208,53,17,57,159,193,221,239,45,248,163,81,213,48,220,214,201,24,143,186,30,243,30,21,29,63,239,19,9,196,21,21,34,43,201,141,63,218,8,188,28,172,12,6,216,205,205,15,212,9,238,224,197,20,44,25,28,20,6,171,64,185,201,225,152,147,173,188,33,227,35,18,230,148,195,47,53,178,197,240,242,243,19,164,170,242,17,162,201,30,241,195,217,7,178,197,195,56,183,9,195,26,29,5,243,47,219,174,165,162,34,147,251,206,255,217,0,26,194,21,253,20,253,209,13,17,227,17,59,181,188,212,163,150,59,160,8,58,215,20,158,22,157,13,17,237,56,227,211,198,53,255,43,18,240,184,160,195,51,228,0,193,19,229,188,186,156,37,53,168,147,58,227,212,158,203,25,32,251,35,182,147,237,206,146,31,175,54,194,163,20,153,168,225,2,140,19,12,235,170,19,43,36,7,5,251,53,236,44,214,197,198,36,152,204,191,149,148,243,155,15,187,166,248,8,155,236,165,196,236,44,239,220,33,38,235,15,168,203,144,212,188,247,225,151,219,248,205,163,64,179,152,3,15,157,197,240,10,178,204,218,146,186,26,81,224,64,4,154,7,192,230,189,237,241,150,243,252,168,1,186,43,199,248,199,223,41,203,17,159,8,162,221,14,158,246,172,25,172,242,21,32,26,187,209,197,201,243,250,52,228,208,49,214,248,214,24,201,160,181,59,34,241,35,210,212,44,204,250,206,197,51,204,143,38,173,249,22,4,227,186,212,219,153,242,52,247,233,194,7,175,47,214,182,38,35,224,6,2,54,236,21,33,4,146,190,0,194,203,169,223,174,40,169,26,46,40,6,46,27,214,14,22,180,19,2,253,45,213,199,35,20,250,21,34,44,210,15,147,170,5,239,167,249,150,88,14,200,34,1,63,198,51,235,22,49,233,44,228,47,142,249,64,49,52,252,36,199,22,210,174,197,56,19,210,162,214,226,217,214,31,221,63,58,14,18,39,242,167,82,4,41,172,67,53,166,175,34,187,31,200,222,252,219,243,153,218,36,163,168,249,222,248,22,231,179,39,191,180,180,245,199,237,47,51,173,32,32,253,169,191,187,249,51,167,60,172,22,11,222,171,180,41,32,221,229,19,200,27,56,171,15,252,225,167,24,202,23,38,204,35,239,12,14,62,211,26,188,6,166,170,17,253,249,152,208,220,20,200,42,231,30,61,182,154,67,170,32,18,190,12,234,64,22,182,67,162,46,27,239,10,142,233,39,176,48,32,230,239,215,195,215,13,239,79,171,174,232,148,217,61,86,46,226,4,197,216,18,232,66,171,78,222,174,29,244,189,18,165,211,147,181,81,24,244,184,26,54,55,223,11,151,151,174,46,227,226,37,187,85,158,182,182,195,26,187,244,227,56,248,33,181,253,227,41,188,9,156,20,169,192,6,237,173,23,181,37,235,61,24,5,57,176,172,159,63,57,176,59,140,56,25,22,242,149,65,59,36,10,188,81,29,176,57,251,12,164,49,197,22,62,250,212,51,246,72,229,42,49,160,161,252,246,225,1,47,188,246,192,39,165,177,64,205,25,62,55,190,186,21,223,150,70,55,245,235,244,74,243,196,159,209,218,165,195,213,237,223,42,249,169,65,154,13,43,10,194,1,208,158,53,173,60,40,4,44,155,184,178,53,163,192,5,155,30,143,180,178,255,255,244,237,0,33,150,214,58,12,2,187,200,56,58,183,42,254,67,141,28,0,254,235,149,234,226,65,149,151,250,202,48,254,21,237,32,184,34,11,38,172,252,213,156,230,38,238,176,244,27,59,253,40,23,61,76,219,201,183,57,23,217,213,249,59,222,30,48,14,16,30,159,10,74,26,238,201,142,203,61,51,24,145,177,45,183,15,240,169,48,4,167,250,250,47,254,190,215,22,224,36,15,53,16,66,47,248,135,152,7,238,226,156,238,47,145,12,206,41,33,181,55,43,15,39,243,200,38,64,23,180,246,185,241,65,223,207,237,170,171,212,158,154,11,5,17,212,59,231,240,211,200,222,207,8,216,58,201,34,199,253,159,61,183,250,205,170,205,66,15,11,226,173,34,13,149,173,32,160,78,169,174,226,30,31,45,199,37,59,197,174,37,175,241,220,52,197,2,165,157,176,196,183,11,234,198,220,10,61,4,55,219,5,55,230,239,156,179,44,234,227,3,176,20,25,151,16,178,151,215,237,159,182,15,23,14,11,186,2,44,155,50,183,13,243,168,150,94,199,201,29,191,1,30,204,146,193,61,60,15,192,206,26,33,219,213,43,227,157,34,174,48,65,218,42,23,210,48,209,24,174,0,242,167,166,144,198,43,157,162,7,156,171,228,150,16,6,50,251,222,249,169,161,220,170,232,46,169,0,204,172,181,45,201,152,29,196,244,52,246,16,154,36,241,248,71,6,149,146,68,0,30,227,4,185,205,13,209,207,250,178,233,168,10,253,182,217,237,33,184,18,255,240,210,188,245,51,242,187,247,58,224,36,177,35,42,33,147,6,47,225,18,152,221,34,219,218,43,26,18,246,7,182,36,200,31,195,34,198,227,241,223,244,219,13,31,160,191,49,206,41,182,4,242,176,13,160,52,59,39,219,28,185,39,168,4,24,162,4,244,252,53,25,72,167,165,66,208,211,209,144,242,170,178,213,183,4,45,19,170,163,242,16,145,34,19,249,252,212,17,54,205,5,237,170,11,166,166,13,221,175,37,243,3,27,217,225,38,220,231,141,192,229,146,152,15,45,226,28,31,19,164,225,32,4,163,239,29,170,150,183,225,230,164,56,187,201,43,179,61,182,248,249,240,195,254,235,153,227,12,35,170,21,9,41,47,143,25,243,17,51,162,210,228,61,18,229,182,20,188,35,177,238,136,50,43,56,16,241,226,33,50,36,8,196,199,202,219,227,228,188,176,252,251,180,151,206,197,207,171,176,54,176,216,230,37,240,208,7,50,212,165,180,31,204,173,169,31,179,199,30,203,163,150,162,3,29,172,187,214,145,28,1,253,250,3,193,20,36,246,162,252,37,238,29,162,2,161,32,9,41,11,7,210,26,242,148,9,166,204,24,195,6,209,214,74,38,182,28,150,175,28,145,62,189,39,55,40,205,227,25,243,246,15,203,181,1,164,151,5,181,17,248,214,222,199,58,59,169,209,187,19,153,247,1,21,178,27,231,238,202,48,252,215,37,148,16,175,47,220,242,156,49,223,39,10,168,255,208,8,2,42,189,184,45,252,187,224,33,34,181,201,15,5,1,239,207,51,176,240,152,37,204,43,46,243,146,242,207,189,196,40,151,208,189,198,210,215,34,241,242,249,34,190,181,209,18,50,22,213,16,43,176,28,157,63,145,217,252,15,43,183,249,172,211,238,171,56,47,221,205,52,203,167,47,37,172,197,53,245,13,190,34,59,56,160,35,209,20,156,143,150,28,0,23,69,169,6,27,255,58,171,163,163,222,173,175,49,201,170,198,40,255,4,41,253,231,216,180,31,162,12,242,180,245,25,47,205,202,53,36,46,220,177,218,171,38,22,164,48,198,50,8,188,28,191,10,63,11,157,179,159,196,173,235,146,46,43,56,27,10,56,51,254,168,200,211,233,223,202,201,57,144,197,167,219,233,25,24,181,156,16,155,158,183,181,255,247,223,147,230,226,242,185,67,148,200,12,6,22,31,191,210,33,30,7,160,34,228,207,235,172,56,154,19,160,216,253,207,248,176,1,58,248,192,255,56,214,18,251,247,229,200,226,255,55,162,41,36,253,168,143,8,16,237,248,165,196,150,12,3,152,145,58,169,24,159,230,210,170,1,52,222,6,148,28,211,173,219,201,140,157,178,22,228,39,205,49,53,182,187,149,216,54,243,164,49,248,223,253,232,3,202,215,173,227,37,156,159,53,48,147,24,244,8,40,199,215,8,6,11,212,36,212,62,201,214,224,48,42,236,7,56,156,206,225,247,4,249,36,17,17,159,17,246,24,196,148,222,253,232,62,17,205,216,44,41,164,159,220,184,190,182,4,248,183,253,253,9,29,182,32,43,185,195,146,18,174,26,177,240,236,160,64,228,1,173,60,44,195,161,21,193,179,167,248,44,154,40,8,239,203,179,236,255,159,227,149,149,54,30,0,146,253,237,52,249,149,22,244,28,14,149,1,241,4,253,215,31,148,59,26,184,254,191,17,23,38,5,219,155,255,234,182,160,248,140,41,58,203,189,246,187,215,188,249,224,176,175,43,37,48,155,254,9,163,41,229,172,202,16,250,53,182,236,15,175,176,180,56,26,163,57,39,17,246,182,142,32,211,1,5,218,37,213,18,234,186,242,243,215,213,16,193,157,164,46,173,205,50,253,31,7,200,210,174,148,185,242,32,163,67,44,65,26,146,197,175,246,208,235,187,193,211,154,229,167,201,1,207,13,172,54,182,241,2,219,203,184,63,61,169,7,12,213,176,20,228,206,251,182,224,3,179,175,175,47,30,198,169,226,48,0,9,250,194,16,222,191,15,216,160,207,222,240,16,157,185,255,37,190,197,157,38,142,206,39,189,56,202,153,163,235,46,239,178,189,216,184,169,180,177,60,245,242,47,239,177,58,54,229,163,22,18,232,165,246,19,59,235,225,203,54,206,249,231,45,238,16,206,201,6,27,31,182,162,73,205,146,197,154,190,177,177,6,9,233,187,17,152,142,165,230,198,49,14,18,31,32,62,15,252,149,224,55,56,246,14,168,239,182,206,4,245,192,162,27,209,17,248,52,248,242,172,25,28,64,229,222,200,187,224,252,210,156,216,229,27,153,176,200,230,52,201,158,162,65,146,242,223,194,191,52,209,143,51,45,148,208,6,35,251,38,50,26,204,247,237,235,202,241,41,177,248,6,202,199,172,24,170,16,185,8,236,187,17,224,176,246,44,236,221,195,34,212,245,191,54,178,46,62,240,193,50,253,171,222,35,30,248,248,230,224,228,247,248,198,248,51,238,83,210,66,250,215,68,217,42,221,88,206,61,229,185,244,27,241,252,190,231,193,18,248,189,77,7,239,233,161,16,37,196,62,163,224,141,167,58,49,198,249,63,55,202,77,233,143,176,241,49,47,221,19,170,211,55,34,185,237,57,21,216,213,152,171,51,48,218,178,193,55,7,171,10,15,54,79,152,190,5,75,83,52,61,11,182,46,32,45,174,20,2,205,243,198,218,16,7,56,231,16,217,53,252,210,84,30,67,225,212,162,191,210,72,209,11,221,169,4,57,46,235,46,162,3,196,198,237,216,31,237,155,186,53,192,203,252,180,194,20,60,228,209,53,228,40,30,175,6,183,72,214,238,171,48,215,237,39,46,12,80,183,173,17,14,62,63,53,239,22,168,10,33,60,20,43,242,2,40,21,157,191,246,60,183,29,53,42,249,188,149,234,220,175,55,211,57,253,60,238,51,82,223,229,177,192,49,203,20,20,213,88,38,22,14,158,155,56,158,240,9,7,236,222,146,58,150,196,245,168,22,253,64,185,16,192,241,11,246,162,147,46,53,197,42,254,57,149,200,79,159,185,185,226,34,32,55,186,177,208,37,198,148,13,207,201,175,188,47,155,29,223,0,167,243,200,28,21,38,189,250,198,162,139,216,15,226,48,6,201,244,14,14,56,210,42,20,45,168,183,203,27,187,190,246,219,10,238,184,14,210,164,149,12,193,144,150,206,12,11,173,31,61,56,42,38,185,51,193,164,169,232,48,210,187,152,240,255,212,42,202,163,236,34,16,37,205,142,21,202,17,11,8,46,52,155,151,186,25,10,190,205,201,25,171,239,195,54,197,6,224,172,215,50,52,232,185,221,61,41,211,55,198,204,33,14,15,154,4,163,205,49,170,188,169,234,46,64,181,137,13,216,193,200,202,168,20,202,166,176,3,27,23,238,189,154,43,14,167,206,64,148,242,69,218,32,10,185,168,42,191,181,189,203,16,38,216,230,169,211,17,6,218,239,242,52,213,230,146,146,243,223,228,40,230,196,15,43,248,226,204,179,60,53,167,189,243,231,249,54,177,241,238,218,207,222,63,47,8,5,251,186,221,47,19,25,60,154,171,177,235,13,175,191,4,190,66,194,158,248,214,54,221,8,236,162,244,45,156,230,32,11,40,157,40,252,198,194,52,38,212,169,152,193,12,54,148,214,231,210,27,63,50,8,178,27,57,215,38,154,34,204,239,25,29,27,160,203,174,202,188,1,236,59,218,179,249,149,244,182,157,183,57,225,237,253,246,17,26,23,182,63,37,15,156,198,161,233,208,179,36,237,214,153,249,24,210,202,218,249,202,233,149,227,43,194,254,228,242,230,210,172,201,144,0,6,225,34,5,170,175,202,187,0,190,176,177,48,6,229,5,51,17,48,32,4,246,173,184,22,193,48,11,192,215,39,39,226,190,207,175,212,44,161,200,47,150,57,36,6,198,43,2,13,20,255,9,174,223,55,200,162,227,3,251,39,201,7,174,163,48,39,215,34,202,209,247,149,212,47,15,33,227,55,226,20,165,213,51,162,170,182,7,252,69,2,1,18,57,78,239,67,58,231,250,32,202,29,252,36,191,62,7,229,196,16,12,40,41,169,230,65,62,83,199,76,3,169,253,218,198,207,169,59,217,53,2,36,210,196,141,48,47,246,195,156,255,219,243,195,210,8,48,157,241,237,164,235,75,235,204,141,177,201,226,178,236,159,217,251,46,209,177,50,10,235,165,61,32,189,213,138,168,220,149,242,247,6,192,238,13,165,225,211,249,158,167,147,146,185,156,169,187,255,239,243,176,209,196,227,159,236,175,57,213,173,22,161,154,18,22,238,147,216,11,236,167,233,4,57,7,227,8,180,45,230,230,175,154,247,213,235,15,217,168,52,190,220,38,197,59,171,21,167,218,35,231,180,158,156,55,212,153,151,18,46,181,48,22,2,50,178,255,196,13,42,145,172,144,227,199,243,18,229,140,230,83,10,38,23,213,229,58,22,59,236,177,23,156,157,153,251,151,28,44,254,224,64,223,182,251,168,191,24,12,67,164,255,190,44,216,192,54,27,50,181,53,195,139,211,234,182,249,142,48,57,179,231,55,173,231,25,50,58,54,253,170,212,208,145,218,220,243,163,194,220,18,215,226,35,48,178,28,251,232,174,224,229,23,39,24,153,237,140,29,13,191,186,152,218,149,222,171,1,232,183,178,190,139,24,58,238,7,172,44,185,193,211,32,222,241,246,59,244,27,44,199,10,152,214,21,27,179,41,191,152,157,4,5,17,246,154,224,232,168,215,170,187,248,207,9,193,200,40,42,202,185,28,169,161,204,223,248,168,50,154,61,49,161,24,0,151,188,237,188,158,243,199,165,176,167,222,170,45,196,53,221,187,160,21,21,235,60,147,246,222,29,255,74,60,27,167,170,161,247,215,160,210,219,231,44,247,59,25,233,4,181,255,40,194,22,192,56,26,164,204,157,254,184,15,24,215,161,227,206,234,23,29,176,144,5,154,245,47,15,154,163,175,226,59,212,189,161,238,5,170,183,234,11,252,187,21,155,236,18,46,36,148,19,160,152,240,149,28,156,22,13,225,37,236,24,30,169,9,166,238,239,43,158,42,213,184,162,28,207,34,185,185,197,172,208,33,190,22,52,232,5,176,242,196,24,53,46,245,204,249,22,20,170,50,3,4,246,235,27,17,210,13,8,220,249,54,176,60,8,37,234,200,219,159,181,6,195,176,154,145,13,217,32,31,200,255,214,222,196,223,28,160,4,28,48,38,48,231,40,242,234,61,4,42,178,42,155,188,4,50,231,248,238,68,3,45,173,253,221,247,43,199,187,170,59,20,213,211,12,31,156,198,158,205,243,152,44,223,152,188,60,189,23,14,205,186,238,5,200,31,199,51,164,11,35,214,61,212,196,29,40,224,210,56,200,229,187,156,234,236,159,244,185,54,59,245,27,178,191,224,249,190,52,147,39,157,217,235,218,25,220,215,38,172,12,229,179,23,229,234,59,18,213,203,36,173,217,31,180,24,201,238,140,25,7,235,179,85,197,13,218,161,21,0,49,49,156,151,11,145,161,14,193,169,220,200,47,8,161,84,206,52,187,138,57,51,252,197,188,14,255,40,79,229,214,206,197,14,235,206,151,166,223,22,6,18,233,35,15,195,34,174,173,34,206,154,146,193,6,206,183,233,16,31,152,8,223,176,238,227,37,242,228,206,184,12,156,179,33,162,47,189,48,30,212,231,186,183,152,158,230,16,248,187,210,187,189,49,58,41,52,137,22,37,24,19,238,24,152,45,199,201,186,170,159,146,57,177,232,10,141,36,227,229,190,239,248,173,214,216,2,2,24,16,223,36,150,42,229,14,240,24,251,71,25,230,25,186,182,190,45,148,228,44,26,61,22,206,243,155,202,235,37,33,52,145,138,53,23,226,207,251,239,27,204,193,197,162,224,246,164,61,223,64,197,159,209,234,59,217,212,205,170,44,223,39,34,28,222,201,222,237,60,32,3,172,153,207,20,255,8,58,48,255,27,9,197,252,181,239,2,7,232,145,211,232,222,144,212,143,193,11,15,164,25,10,254,204,230,232,34,226,235,186,217,162,252,190,53,243,78,76,14,5,148,52,227,25,39,9,159,172,236,43,239,202,78,62,33,211,37,63,196,58,154,239,55,48,13,247,174,206,41,58,30,239,179,194,37,34,44,216,14,176,163,220,15,200,195,1,56,212,54,234,196,54,4,223,169,29,35,5,169,44,172,66,214,85,255,213,236,221,86,188,250,223,210,172,251,181,42,34,214,195,15,38,15,183,181,174,46,150,244,180,185,152,169,64,156,49,8,142,168,185,79,191,234,216,179,252,202,26,77,227,193,41,237,69,200,54,164,225,202,183,15,235,9,41,26,19,144,242,225,186,229,226,191,22,218,39,145,4,27,229,69,8,57,188,217,236,33,23,17,49,224,43,208,213,8,146,32,51,54,221,203,246,77,5,187,31,174,181,6,44,59,223,176,3,197,37,233,36,197,11,162,174,143,51,84,190,175,203,72,242,46,232,178,140,51,233,21,220,196,46,155,140,147,35,229,171,84,202,201,245,244,250,247,69,238,58,70,38,236,204,184,36,10,71,139,188,87,22,45,19,248,148,230,232,3,248,204,148,81,155,58,66,220,200,144,207,246,151,244,15,16,30,220,236,180,67,35,188,55,192,46,176,155,214,227,246,242,151,203,61,154,53,213,223,243,224,45,44,243,12,249,209,54,62,209,6,164,149,240,169,145,223,32,63,197,250,38,146,11,237,20,157,249,61,197,176,216,174,7,197,26,179,33,173,8,42,6,252,30,0,179,56,69,226,162,227,160,19,152,241,151,64,187,190,190,199,159,177,11,220,10,0,228,61,192,244,149,56,196,179,221,200,178,182,177,198,183,49,186,204,224,159,212,181,5,1,192,151,180,49,155,181,14,239,26,184,167,31,191,138,187,148,149,43,36,230,234,249,22,213,10,155,184,32,207,7,6,28,152,40,15,158,63,155,198,228,148,145,8,178,239,2,22,170,250,222,8,164,158,59,62,21,229,246,224,190,199,231,243,36,154,7,237,31,47,61,34,152,212,214,223,245,212,201,204,249,175,234,192,213,196,181,232,217,220,3,221,35,191,65,52,29,39,165,192,227,206,255,212,232,147,178,225,250,233,39,62,169,223,211,175,190,64,158,2,79,158,244,198,23,35,230,62,245,243,43,200,6,27,239,50,179,34,172,159,31,44,14,242,193,169,221,33,65,78,54,177,184,169,202,154,202,35,164,15,193,38,52,222,174,180,169,207,28,20,223,215,184,61,197,147,235,55,56,154,38,65,248,9,16,9,5,174,171,201,65,161,20,171,13,154,254,236,159,189,239,202,40,17,250,192,188,26,62,166,253,11,151,58,215,206,250,209,84,254,14,155,230,252,196,221,155,42,28,196,252,230,222,225,57,28,154,8,176,226,174,138,231,213,154,155,172,152,174,165,188,26,32,34,244,230,204,236,159,19,215,209,226,210,198,172,23,64,175,250,250,192,25,167,250,198,57,45,211,203,72,49,52,175,2,179,242,171,57,31,239,167,18,215,217,254,6,229,181,250,2,243,249,13,241,191,59,153,165,248,210,43,78,146,247,185,214,63,193,214,244,192,236,157,221,186,31,197,193,161,21,21,15,45,219,180,237,253,175,34,241,62,179,200,57,59,14,234,194,55,221,246,206,61,5,230,167,216,49,19,236,52,34,183,15,55,160,209,176,179,43,220,40,31,234,245,245,66,197,184,16,63,205,10,22,231,248,191,167,217,174,17,47,55,187,183,64,158,194,148,40,37,177,198,154,161,145,150,230,224,8,188,228,226,225,8,244,171,219,7,56,242,226,43,84,199,25,55,147,29,184,216,13,52,183,1,36,20,169,196,197,193,218,229,20,175,175,172,191,26,152,230,209,15,12,57,33,199,239,203,37,238,25,54,193,247,179,154,222,18,236,254,145,32,41,42,231,208,42,31,195,246,176,16,253,59,165,239,44,188,61,41,38,160,7,216,190,244,251,31,195,53,181,238,159,254,144,18,30,147,247,45,200,164,199,33,203,21,237,25,75,229,235,190,255,34,243,197,175,179,8,240,209,7,8,230,232,36,31,20,162,156,56,153,141,190,212,196,143,61,160,39,28,162,159,53,239,17,207,239,242,17,27,155,182,193,239,6,38,36,252,221,11,196,47,174,252,189,243,53,237,20,18,53,39,207,237,195,236,45,210,45,240,54,217,253,168,242,49,234,176,220,18,168,166,151,176,184,52,209,206,193,164,171,17,232,199,22,60,162,10,200,13,246,146,176,238,215,29,45,27,152,247,25,205,244,40,232,217,32,244,5,224,205,8,52,10,189,25,45,232,173,254,190,156,45,221,244,207,170,142,21,220,205,197,38,207,198,196,30,55,169,30,195,225,3,186,196,2,32,205,239,221,227,162,41,173,227,235,161,149,181,191,187,200,198,12,175,137,218,209,249,60,156,20,169,231,244,14,207,44,35,39,244,223,205,150,186,8,198,54,1,18,220,215,176,198,36,23,228,243,204,248,57,24,247,218,162,190,45,234,53,34,149,36,221,213,171,11,220,168,10,26,250,81,26,147,226,230,58,166,225,57,24,44,27,0,187,170,21,52,22,6,167,188,30,2,222,171,164,231,205,36,58,196,14,231,241,61,171,240,233,45,158,62,142,197,231,168,11,33,42,13,5,151,242,209,199,199,228,22,34,167,169,180,171,165,19,54,253,196,150,233,186,154,42,15,251,197,214,193,224,168,171,4,218,34,35,147,31,250,39,154,29,140,165,7,32,158,216,204,53,240,180,0,178,190,170,40,218,245,237,227,52,5,241,32,190,13,242,18,12,185,6,255,141,140,4,60,151,207,239,243,30,171,41,252,42,44,46,217,19,248,9,246,236,9,169,184,173,166,166,230,24,198,151,68,196,47,1,185,51,184,184,35,45,199,61,25,57,58,177,222,192,56,179,228,214,211,4,34,37,156,223,39,32,207,241,29,252,150,240,31,9,228,231,24,169,184,71,57,17,148,1,190,42,251,36,228,216,0,165,48,29,190,151,200,10,254,200,24,165,145,233,18,44,61,38,254,166,181,248,193,4,5,210,171,144,58,169,34,31,193,246,191,160,247,169,237,228,166,209,181,149,9,180,218,51,154,223,54,60,36,179,28,26,9,191,11,197,42,230,159,4,186,197,17,201,219,159,40,146,167,33,25,30,43,197,202,20,203,217,64,209,178,202,176,204,154,146,45,166,37,12,50,251,221,150,228,250,152,224,231,20,201,241,167,251,247,173,200,147,19,61,64,143,228,189,196,148,26,144,176,211,167,54,180,171,21,145,194,12,203,22,8,157,233,13,59,37,40,194,175,56,187,36,254,231,245,210,254,223,250,164,172,242,141,58,9,195,23,235,39,16,19,216,42,46,17,19,65,196,25,198,18,227,199,252,87,226,48,34,250,226,164,196,33,165,253,234,7,227,201,219,162,228,29,145,150,6,27,204,178,162,158,46,148,26,202,236,229,185,36,22,227,190,145,169,250,37,170,251,21,231,186,183,176,33,228,244,48,13,62,161,231,251,174,244,63,192,57,188,189,3,153,239,226,236,49,5,34,22,141,226,192,74,55,201,204,15,237,21,242,136,227,212,154,5,212,152,167,168,174,219,220,50,190,254,49,198,165,206,184,139,247,53,48,50,153,67,27,221,27,235,34,255,88,247,202,39,49,51,10,85,62,1,242,224,217,239,159,18,191,192,53,206,189,19,255,11,54,239,164,172,10,31,152,138,180,38,51,232,196,49,174,40,57,191,64,152,12,173,219,245,9,1,189,251,155,218,253,62,225,38,162,189,206,22,184,176,193,49,149,54,185,245,13,15,243,241,182,44,31,88,155,24,51,40,201,250,237,229,242,185,193,186,28,245,24,187,32,194,57,148,239,207,3,38,196,27,225,206,54,5,184,251,57,182,11,28,250,13,252,229,27,194,57,171,164,205,182,24,190,183,230,203,252,58,150,145,46,186,4,143,179,51,176,71,31,12,218,11,212,178,244,210,206,210,2,212,139,176,185,255,210,13,255,10,193,70,194,16,23,216,195,148,13,141,188,248,16,51,17,203,227,44,209,55,140,173,156,214,45,169,227,18,19,47,4,252,55,51,234,52,25,63,239,57,72,10,234,245,211,54,57,59,218,156,157,236,191,237,166,181,144,50,194,156,215,212,241,229,152,168,219,204,210,239,214,166,61,23,32,0,152,39,239,42,163,148,1,47,151,246,33,70,240,38,248,179,43,13,168,217,40,227,1,254,198,54,57,221,221,209,242,206,189,232,57,14,224,221,165,49,13,205,4,196,138,255,41,163,65,21,180,180,51,80,203,212,161,49,211,234,253,196,10,193,31,9,59,5,58,238,2,13,247,12,244,251,251,0,39,239,230,24,19,27,231,3,34,248,10,11,30,6,241,237,201,11,0,235,46,18,223,253,0,26,254,12,4,252,0,227,6,12,228,6,24,23,255,15,22,20,215,22,249,253,250,7,217,238,21,1,28,9,254,249,31,244,20,234,241,248,15,251,249,15,207,20,7,15,252,0,12,15,234,8,245,2,241,10,238,9,0,253,26,241,8,249,18,17,243,1,17,252,9,235,2,242,190,5,29,242,43,246,252,215,238,252,35,14,19,9,250,254,3,1,30,11,248,4,255,243,253,249,0,12,11,243,19,6,240,236,19,4,7,13,15,21,223,1,2,32,228,15,29,22,255,22,5,19,10,25,249,17,252,246,23,3,18,101,30,8,234,245,245,250,16,8,21,235,13,16,35,11,30,255,1,250,20,8,60,19,14,0,253,247,253,9,24,250,248,6,10,240,245,248,7,15,14,5,29,8,241,239,7,238,68,8,52,3,244,14,246,236,30,251,255,6,21,26,18,21,241,99,20,255,218,243,2,251,112,3,244,246,225,21,29,252,55,245,239,243,21,16,24,246,2,8,253,21,16,235,253,11,1,172,0,3,211,9,10,13,225,248,18,242,56,27,242,5,17,25,6,14,6,240,39,248,14,26,26,16,31,14,251,9,22,74,243,6,203,0,1,243,28,3,251,29,18,23,25,6,0,247,236,19,20,8,58,4,228,14,9,250,8,25,25,6,232,197,15,222,227,253,25,245,58,22,23,23,33,6,37,22,48,21,253,29,19,27,25,7,16,19,246,4,249,21,13,17,248,198,242,13,18,2,249,4,34,246,246,21,240,241,32,9,1,27,2,14,3,10,30,8,26,244,245,23,1,254,26,14,11,56,23,4,47,18,8,248,119,10,253,255,249,6,8,3,28,21,234,241,7,3,217,252,33,244,22,21,24,238,7,253,248,250,35,252,38,9,0,3,99,255,4,246,9,4,3,0,48,16,253,29,12,240,248,13,34,8,255,251,252,20,242,242,229,6,5,14,238,249,24,13,59,24,2,249,21,6,9,252,17,25,21,0,1,12,23,7,23,244,243,243,227,240,234,10,245,216,234,234,208,252,15,240,43,253,240,20,219,16,7,11,15,246,11,26,241,1,234,2,215,247,241,0,12,11,11,5,236,28,28,250,238,236,4,250,26,237,12,8,219,10,3,3,252,235,248,6,8,246,196,247,241,242,239,242,247,22,244,0,252,15,36,228,27,19,242,20,50,28,248,22,91,9,6,25,233,22,236,14,5,24,194,239,6,242,0,255,23,9,236,239,2,64,1,9,8,23,255,243,30,252,6,252,32,24,5,247,12,12,247,7,255,2,202,234,249,254,26,5,11,10,12,246,13,44,238,255,223,0,18,3,62,1,23,17,73,245,252,6,3,18,255,15,19,237,202,250,11,20,16,4,30,242,240,11,243,113,7,247,235,240,19,247,254,17,15,12,76,1,28,8,2,21,244,14,3,243,188,244,21,4,19,254,5,239,16,245,245,180,251,243,10,23,23,235,229,251,20,244,63,5,26,248,44,240,230,250,2,2,228,236,250,23,250,16,28,232,7,244,11,20,14,222,25,25,16,9,43,12,2,242,15,252,240,0,29,253,201,252,19,251,185,231,11,242,28,243,246,239,9,242,245,33,22,13,250,7,248,16,3,239,23,242,36,249,8,240,52,251,10,5,19,3,190,3,245,12,24,247,244,248,246,245,7,211,26,20,250,250,23,250,57,12,26,1,36,245,24,20,37,239,236,10,255,23,246,250,10,19,22,242,14,6,250,243,235,204,252,28,19,26,246,241,127,1,11,236,212,235,242,1,40,241,5,26,27,20,223,17,9,241,16,14,15,235,12,16,253,28,13,29,3,3,25,18,25,16,17,239,223,238,254,245,242,254,212,251,6,4,203,10,37,3,13,255,19,246,12,242,251,24,8,21,36,243,240,241,73,238,0,252,3,244,242,246,21,245,238,2,253,234,212,238,241,17,29,10,235,21,8,249,4,46,238,20,35,9,254,23,67,253,27,8,21,9,10,7,17,2,241,6,27,233,177,238,253,2,4,242,245,245,243,241,243,255,7,24,253,249,23,253,16,5,12,251,17,253,23,0,18,2,14,1,18,1,175,240,48,243,242,14,245,13,14,3,7,83,21,25,2,252,25,245,65,16,23,31,12,235,240,27,37,242,233,244,29,242,213,12,229,250,16,5,242,249,240,5,15,63,10,1,29,24,9,235,16,23,10,2,60,3,4,246,18,1,39,10,239,245,245,239,1,21,7,237,0,20,17,14,24,29,251,214,3,10,27,13,3,255,30,252,244,2,255,5,42,236,252,0,0,5,227,246,240,17,20,16,1,6,242,24,252,255,239,11,244,23,253,247,7,237,253,8,2,14,15,16,255,15,232,5,9,18,217,4,238,247,0,240,248,255,255,10,8,13,20,249,251,249,0,16,5,18,242,14,11,7,22,8,253,1,229,18,254,249,199,6,246,0,10,0,0,25,4,236,237,81,252,228,19,254,239,0,22,18,11,206,30,23,240,18,42,255,249,19,0,6,165,14,230,5,241,19,10,0,250,1,239,248,250,203,40,13,253,239,244,255,23,18,1,234,24,254,